#include <stdint.h>

const uint32_t l1_weight[] = {
    0x00000605, 0x00e90100, 0x03050000, 0xe4000000,
    0x00000000, 0x00000000, 0x00000000, 0x00000000,
    0x00000000, 0x00000000, 0x00000000, 0x00000000,
    0x00000000, 0x00000000, 0x00000000, 0xe7070b01,
    0x02e40000, 0x00000000, 0x00000000, 0x00000000,
    0x00000000, 0x00000000, 0x050b11ff, 0x21001400,
    0x00000000, 0x00000000, 0x00000000, 0x00000005,
    0x0000f3f2, 0x000bfe00, 0xf4fd0000, 0x08000000,
    0x00000000, 0x00000000, 0x00000000, 0x00000000,
    0x00000000, 0x00000000, 0x00000000, 0x00000000,
    0x0000e3f0, 0xf500ecfb, 0x0ffa0000, 0x00000000,
    0x00000000, 0x00000000, 0x01fdf70d, 0xf71aea17,
    0x00000000, 0x00000000, 0x00000000, 0x00000000,
    0x00000000, 0x00000000, 0x00000000, 0x000000fa,
    0x0000f6fa, 0x00fef400, 0x04f90000, 0x09000000,
    0x00000000, 0x00000000, 0x00000000, 0x00000000,
    0x00000000, 0x00000000, 0x0000ea06, 0x1912cee6,
    0x1d0c0000, 0x00000000, 0xf4fd0803, 0xeef4244d,
    0x00000000, 0x00000000, 0x00000000, 0x00000000,
    0x00000000, 0x00000000, 0x00000000, 0x00000000,
    0x00000000, 0x00000000, 0x00000000, 0x000000fa,
    0x0000ed01, 0x00fbfc00, 0xf0290000, 0x00000000,
    0x00000000, 0x00000000, 0x00000000, 0x00000000,
    0x000021f5, 0xf3fff2f1, 0xfbfa0ffa, 0x1afa0913,
    0x00000302, 0x00cde700, 0x08090000, 0x00000000,
    0x00000000, 0x00000000, 0x00000000, 0x00000000,
    0x00000000, 0x00000000, 0x00000000, 0x00000000,
    0x00000000, 0x00000000, 0x00000000, 0xdd152d06,
    0xf8e60000, 0x00000000, 0x00000000, 0x00000000,
    0x00000000, 0x00000000, 0x020308ff, 0x10faf206,
    0x00000000, 0x00000000, 0x00000000, 0x000000ec,
    0x000002f3, 0x00031a00, 0xf5f70000, 0x0e000000,
    0x00000000, 0x00000000, 0x00000000, 0x00000000,
    0x00000000, 0x00000000, 0x00000000, 0x00000000,
    0x0000e7ea, 0xe3f02efa, 0xf7eb0000, 0x00000000,
    0x00000000, 0x00000000, 0x061804f5, 0xd709f1ff,
    0x00000000, 0x00000000, 0x00000000, 0x00000000,
    0x00000000, 0x00000000, 0x00000000, 0x00000009,
    0x00000500, 0x0008f800, 0x03f00000, 0x00000000,
    0x00000000, 0x00000000, 0x00000000, 0x00000000,
    0x00000000, 0x00000000, 0x0000e9eb, 0xf50bd1c8,
    0x17120000, 0x00000000, 0x0feeeffe, 0xebff101b,
    0x00000000, 0x00000000, 0x00000000, 0x00000000,
    0x00000000, 0x00000000, 0x00000000, 0x00000000,
    0x00000000, 0x00000000, 0x00000000, 0x00000006,
    0x000018fb, 0x00060300, 0x13300000, 0x00000000,
    0x00000000, 0x00000000, 0x00000000, 0x00000000,
    0x000021f8, 0x00e2f4f7, 0x0afb17fb, 0xf906f606,
    0x0000fafc, 0x00e0e800, 0xf1020000, 0xeb000000,
    0x00000000, 0x00000000, 0x00000000, 0x00000000,
    0x00000000, 0x00000000, 0x00000000, 0x00000000,
    0x00000000, 0x00000000, 0x00000000, 0xeb0f3a05,
    0x19e70000, 0x00000000, 0x00000000, 0x00000000,
    0x00000000, 0x00000000, 0x13090304, 0x0a01e3f8,
    0x00000000, 0x00000000, 0x00000000, 0x000000fe,
    0x00000106, 0x00092600, 0xf5f00000, 0xf9000000,
    0x00000000, 0x00000000, 0x00000000, 0x00000000,
    0x00000000, 0x00000000, 0x00000000, 0x00000000,
    0x0000e802, 0x14051bdd, 0xe4fa0000, 0x00000000,
    0x00000000, 0x00000000, 0x08130d08, 0xeb02f2fc,
    0x00000000, 0x00000000, 0x00000000, 0x00000000,
    0x00000000, 0x00000000, 0x00000000, 0x0000001b,
    0x0000fdfa, 0x000df400, 0x03020000, 0x07000000,
    0x00000000, 0x00000000, 0x00000000, 0x00000000,
    0x00000000, 0x00000000, 0x0000f1de, 0xf905e8cc,
    0x1a000000, 0x00000000, 0xf0f508ff, 0xfffe0606,
    0x00000000, 0x00000000, 0x00000000, 0x00000000,
    0x00000000, 0x00000000, 0x00000000, 0x00000000,
    0x00000000, 0x00000000, 0x00000000, 0x00000016,
    0x000000ea, 0x0002e600, 0x0f240000, 0x00000000,
    0x00000000, 0x00000000, 0x00000000, 0x00000000,
    0x00001ff8, 0xf6e4ecf6, 0x110200ed, 0x0a00eaf3,
    0x0000f002, 0x00d6e900, 0x01d80000, 0xf5000000,
    0x00000000, 0x00000000, 0x00000000, 0x00000000,
    0x00000000, 0x00000000, 0x00000000, 0x00000000,
    0x00000000, 0x00000000, 0x00000000, 0xf321320a,
    0xffc80000, 0x00000000, 0x00000000, 0x00000000,
    0x00000000, 0x00000000, 0xffff1309, 0xf8f7fafc,
    0x00000000, 0x00000000, 0x00000000, 0x000000ed,
    0x0000fa0b, 0x00041f00, 0xf2f40000, 0xfe000000,
    0x00000000, 0x00000000, 0x00000000, 0x00000000,
    0x00000000, 0x00000000, 0x00000000, 0x00000000,
    0x0000e002, 0x3814f22b, 0xf9f80000, 0x00000000,
    0x00000000, 0x00000000, 0x0b0afc0b, 0xf807f2f9,
    0x00000000, 0x00000000, 0x00000000, 0x00000000,
    0x00000000, 0x00000000, 0x00000000, 0x00000010,
    0x00000e08, 0x00071700, 0x1c120000, 0x13000000,
    0x00000000, 0x00000000, 0x00000000, 0x00000000,
    0x00000000, 0x00000000, 0x0000cef9, 0xf30108ea,
    0x12f20000, 0x00000000, 0xfff81df6, 0x01f9defc,
    0x00000000, 0x00000000, 0x00000000, 0x00000000,
    0x00000000, 0x00000000, 0x00000000, 0x00000000,
    0x00000000, 0x00000000, 0x00000000, 0x000000f7,
    0x0000d501, 0x0003f500, 0x0b260000, 0x00000000,
    0x00000000, 0x00000000, 0x00000000, 0x00000000,
    0x00000fee, 0xf5e7cbfe, 0x07f0f3ed, 0xff02ffee,
    0x0000df01, 0x00e60b00, 0x1bea0000, 0xfd000000,
    0x00000000, 0x00000000, 0x00000000, 0x00000000,
    0x00000000, 0x00000000, 0x00000000, 0x00000000,
    0x00000000, 0x00000000, 0x00000000, 0xec191703,
    0x03e20000, 0x00000000, 0x00000000, 0x00000000,
    0x00000000, 0x00000000, 0x02223a0a, 0x080208fb,
    0x00000000, 0x00000000, 0x00000000, 0x000000f5,
    0x00000206, 0x00ef1d00, 0xf6fa0000, 0xca000000,
    0x00000000, 0x00000000, 0x00000000, 0x00000000,
    0x00000000, 0x00000000, 0x00000000, 0x00000000,
    0x0000ebf3, 0x07ecf501, 0xfb070000, 0x00000000,
    0x00000000, 0x00000000, 0x0f131303, 0xf908f903,
    0x00000000, 0x00000000, 0x00000000, 0x00000000,
    0x00000000, 0x00000000, 0x00000000, 0x000000e7,
    0x000000f9, 0x00fa0e00, 0x192d0000, 0x0e000000,
    0x00000000, 0x00000000, 0x00000000, 0x00000000,
    0x00000000, 0x00000000, 0x0000ff0f, 0xfd05171d,
    0x0aff0000, 0x00000000, 0xecfd100b, 0x0af8f8ed,
    0x00000000, 0x00000000, 0x00000000, 0x00000000,
    0x00000000, 0x00000000, 0x00000000, 0x00000000,
    0x00000000, 0x00000000, 0x00000000, 0x000000e9,
    0x0000cf18, 0x00fdff00, 0x060b0000, 0x00000000,
    0x00000000, 0x00000000, 0x00000000, 0x00000000,
    0x000002ef, 0xeefad408, 0xfc04091c, 0x05fffaec,
    0x000012fd, 0x0010fb00, 0xfc0d0000, 0xed000000,
    0x00000000, 0x00000000, 0x00000000, 0x00000000,
    0x00000000, 0x00000000, 0x00000000, 0x00000000,
    0x00000000, 0x00000000, 0x00000000, 0xe6fdfffd,
    0x16e90000, 0x00000000, 0x00000000, 0x00000000,
    0x00000000, 0x00000000, 0xf50b0907, 0x14faf40f,
    0x00000000, 0x00000000, 0x00000000, 0x000000e7,
    0x000002f0, 0x00020d00, 0xf1f40000, 0x05000000,
    0x00000000, 0x00000000, 0x00000000, 0x00000000,
    0x00000000, 0x00000000, 0x00000000, 0x00000000,
    0x0000dcff, 0x351ff101, 0x17010000, 0x00000000,
    0x00000000, 0x00000000, 0xf00010fc, 0xf803eb04,
    0x00000000, 0x00000000, 0x00000000, 0x00000000,
    0x00000000, 0x00000000, 0x00000000, 0x000000f2,
    0x00000101, 0x0015f900, 0xf8fd0000, 0xf4000000,
    0x00000000, 0x00000000, 0x00000000, 0x00000000,
    0x00000000, 0x00000000, 0x0000e332, 0x1ffdccf9,
    0x0f040000, 0x00000000, 0xfb05f50f, 0x0df92c3a,
    0x00000000, 0x00000000, 0x00000000, 0x00000000,
    0x00000000, 0x00000000, 0x00000000, 0x00000000,
    0x00000000, 0x00000000, 0x00000000, 0x0000000d,
    0x0000e6fc, 0x00faf100, 0xfd280000, 0x00000000,
    0x00000000, 0x00000000, 0x00000000, 0x00000000,
    0x000000e9, 0xf9ede90a, 0xe703ff20, 0x1efe0614,
    0x000017ff, 0x00142b00, 0x0a0e0000, 0x22000000,
    0x00000000, 0x00000000, 0x00000000, 0x00000000,
    0x00000000, 0x00000000, 0x00000000, 0x00000000,
    0x00000000, 0x00000000, 0x00000000, 0xdd1e0f00,
    0x0ff60000, 0x00000000, 0x00000000, 0x00000000,
    0x00000000, 0x00000000, 0x04feff08, 0x08e9f7fd,
    0x00000000, 0x00000000, 0x00000000, 0x00000019,
    0x0000f7ee, 0x00041700, 0xee030000, 0x23000000,
    0x00000000, 0x00000000, 0x00000000, 0x00000000,
    0x00000000, 0x00000000, 0x00000000, 0x00000000,
    0x0000eb08, 0x14f0ed1f, 0xf3f40000, 0x00000000,
    0x00000000, 0x00000000, 0xfcfd0bfd, 0xe90501f3,
    0x00000000, 0x00000000, 0x00000000, 0x00000000,
    0x00000000, 0x00000000, 0x00000000, 0x000000fc,
    0x0000e9fb, 0x0003c100, 0x12ff0000, 0x08000000,
    0x00000000, 0x00000000, 0x00000000, 0x00000000,
    0x00000000, 0x00000000, 0x0000f810, 0x1a07cfe9,
    0x35180000, 0x00000000, 0x100bf707, 0xf6050d03,
    0x00000000, 0x00000000, 0x00000000, 0x00000000,
    0x00000000, 0x00000000, 0x00000000, 0x00000000,
    0x00000000, 0x00000000, 0x00000000, 0x00000002,
    0x0000fd13, 0x00faf100, 0x031f0000, 0x00000000,
    0x00000000, 0x00000000, 0x00000000, 0x00000000,
    0x000020fb, 0xf10614f6, 0xf6140f0f, 0xf1fefe09,
    0x00000f04, 0x000b2900, 0xebfd0000, 0xfb000000,
    0x00000000, 0x00000000, 0x00000000, 0x00000000,
    0x00000000, 0x00000000, 0x00000000, 0x00000000,
    0x00000000, 0x00000000, 0x00000000, 0xea331207,
    0x16e90000, 0x00000000, 0x00000000, 0x00000000,
    0x00000000, 0x00000000, 0x10ea1211, 0x0deafefc,
    0x00000000, 0x00000000, 0x00000000, 0x000000fb,
    0x0000fcfa, 0x00f23000, 0x06ff0000, 0x1f000000,
    0x00000000, 0x00000000, 0x00000000, 0x00000000,
    0x00000000, 0x00000000, 0x00000000, 0x00000000,
    0x0000e203, 0xc518e9f1, 0xe0180000, 0x00000000,
    0x00000000, 0x00000000, 0x0709000a, 0x0607fffc,
    0x00000000, 0x00000000, 0x00000000, 0x00000000,
    0x00000000, 0x00000000, 0x00000000, 0x0000000f,
    0x0000f6ff, 0x00ef0900, 0xf30a0000, 0x09000000,
    0x00000000, 0x00000000, 0x00000000, 0x00000000,
    0x00000000, 0x00000000, 0x0000e0d1, 0x1b26c2d4,
    0x140e0000, 0x00000000, 0x0307090c, 0xfdfce2f3,
    0x00000000, 0x00000000, 0x00000000, 0x00000000,
    0x00000000, 0x00000000, 0x00000000, 0x00000000,
    0x00000000, 0x00000000, 0x00000000, 0x000000e5,
    0x00003d0c, 0x0000e800, 0x1d0f0000, 0x00000000,
    0x00000000, 0x00000000, 0x00000000, 0x00000000,
    0x00001de2, 0xf0f413e6, 0x09082406, 0x00fbe800,
    0x0000f20a, 0x000f3800, 0x0bea0000, 0xf1000000,
    0x00000000, 0x00000000, 0x00000000, 0x00000000,
    0x00000000, 0x00000000, 0x00000000, 0x00000000,
    0x00000000, 0x00000000, 0x00000000, 0xf31a04fe,
    0xfabb0000, 0x00000000, 0x00000000, 0x00000000,
    0x00000000, 0x00000000, 0x1606330b, 0xfbea04ff,
    0x00000000, 0x00000000, 0x00000000, 0x000000e8,
    0x0000fa1e, 0x00f31c00, 0xffff0000, 0x14000000,
    0x00000000, 0x00000000, 0x00000000, 0x00000000,
    0x00000000, 0x00000000, 0x00000000, 0x00000000,
    0x0000e8e4, 0x031add1e, 0x231b0000, 0x00000000,
    0x00000000, 0x00000000, 0xfa16f213, 0x0c03f105,
    0x00000000, 0x00000000, 0x00000000, 0x00000000,
    0x00000000, 0x00000000, 0x00000000, 0x0000002c,
    0x00000d00, 0x00e24f00, 0x16020000, 0xf6000000,
    0x00000000, 0x00000000, 0x00000000, 0x00000000,
    0x00000000, 0x00000000, 0x0000cfca, 0x0833e1c6,
    0x1c020000, 0x00000000, 0xec061f02, 0xeafd01e9,
    0x00000000, 0x00000000, 0x00000000, 0x00000000,
    0x00000000, 0x00000000, 0x00000000, 0x00000000,
    0x00000000, 0x00000000, 0x00000000, 0x000000e4,
    0x000054de, 0x00eef800, 0x18000000, 0x00000000,
    0x00000000, 0x00000000, 0x00000000, 0x00000000,
    0x00000be7, 0xe7f417e8, 0x140f101c, 0xf6fce3ee,
    0x0000effe, 0x00fbfa00, 0x25e50000, 0xfa000000,
    0x00000000, 0x00000000, 0x00000000, 0x00000000,
    0x00000000, 0x00000000, 0x00000000, 0x00000000,
    0x00000000, 0x00000000, 0x00000000, 0xe623ff09,
    0x0deb0000, 0x00000000, 0x00000000, 0x00000000,
    0x00000000, 0x00000000, 0x031e3507, 0x02fc10f9,
    0x00000000, 0x00000000, 0x00000000, 0x000000e5,
    0x00000406, 0x00fe2200, 0xfd010000, 0xd3000000,
    0x00000000, 0x00000000, 0x00000000, 0x00000000,
    0x00000000, 0x00000000, 0x00000000, 0x00000000,
    0x0000e5fc, 0x0208e8f0, 0xf1280000, 0x00000000,
    0x00000000, 0x00000000, 0xf209f404, 0x000ff000,
    0x00000000, 0x00000000, 0x00000000, 0x00000000,
    0x00000000, 0x00000000, 0x00000000, 0x0000000c,
    0x00000803, 0x00e34700, 0x1e1f0000, 0xf8000000,
    0x00000000, 0x00000000, 0x00000000, 0x00000000,
    0x00000000, 0x00000000, 0x00000314, 0x163706de,
    0x07010000, 0x00000000, 0xf4fc1411, 0xfaee06fc,
    0x00000000, 0x00000000, 0x00000000, 0x00000000,
    0x00000000, 0x00000000, 0x00000000, 0x00000000,
    0x00000000, 0x00000000, 0x00000000, 0x000000e7,
    0x000034df, 0x00f41500, 0x0cfd0000, 0x00000000,
    0x00000000, 0x00000000, 0x00000000, 0x00000000,
    0x0000eaf2, 0xed030dee, 0xfc0cf22a, 0xf7f5ddfe,
    0x00000306, 0x00fe1b00, 0xf6070000, 0x0c000000,
    0x00000000, 0x00000000, 0x00000000, 0x00000000,
    0x00000000, 0x00000000, 0x00000000, 0x00000000,
    0x00000000, 0x00000000, 0x00000000, 0xf1edfc00,
    0x2af90000, 0x00000000, 0x00000000, 0x00000000,
    0x00000000, 0x00000000, 0xd805f307, 0x10ebf601,
    0x00000000, 0x00000000, 0x00000000, 0x000000f6,
    0x0000fff9, 0x00040400, 0xf5020000, 0xde000000,
    0x00000000, 0x00000000, 0x00000000, 0x00000000,
    0x00000000, 0x00000000, 0x00000000, 0x00000000,
    0x0000ed18, 0x1359ee1d, 0x08200000, 0x00000000,
    0x00000000, 0x00000000, 0xfed710e0, 0xf701e304,
    0x00000000, 0x00000000, 0x00000000, 0x00000000,
    0x00000000, 0x00000000, 0x00000000, 0x000000ed,
    0x0000f9f9, 0x000de800, 0xfbef0000, 0x07000000,
    0x00000000, 0x00000000, 0x00000000, 0x00000000,
    0x00000000, 0x00000000, 0x00002e2c, 0x140cfe03,
    0x0ef50000, 0x00000000, 0x0118e3fc, 0xf7f7191d,
    0x00000000, 0x00000000, 0x00000000, 0x00000000,
    0x00000000, 0x00000000, 0x00000000, 0x00000000,
    0x00000000, 0x00000000, 0x00000000, 0x000000e0,
    0x000007ef, 0x00f7f200, 0x04040000, 0x00000000,
    0x00000000, 0x00000000, 0x00000000, 0x00000000,
    0x0000ebe2, 0xf70ce50a, 0xf712f916, 0x15f7e809,
    0x00001efa, 0x00152900, 0x06f90000, 0x12000000,
    0x00000000, 0x00000000, 0x00000000, 0x00000000,
    0x00000000, 0x00000000, 0x00000000, 0x00000000,
    0x00000000, 0x00000000, 0x00000000, 0xf4e1ffff,
    0x1bf30000, 0x00000000, 0x00000000, 0x00000000,
    0x00000000, 0x00000000, 0xe4170808, 0x02e301f1,
    0x00000000, 0x00000000, 0x00000000, 0x00000004,
    0x0000eeee, 0x00f82500, 0x02fe0000, 0xfc000000,
    0x00000000, 0x00000000, 0x00000000, 0x00000000,
    0x00000000, 0x00000000, 0x00000000, 0x00000000,
    0x0000e118, 0x0c0dda29, 0xd3040000, 0x00000000,
    0x00000000, 0x00000000, 0xe9e31ce3, 0xf302f7f2,
    0x00000000, 0x00000000, 0x00000000, 0x00000000,
    0x00000000, 0x00000000, 0x00000000, 0x000000f5,
    0x000002f8, 0x00e90a00, 0x0ef00000, 0x07000000,
    0x00000000, 0x00000000, 0x00000000, 0x00000000,
    0x00000000, 0x00000000, 0x00002723, 0x1309c108,
    0x12f80000, 0x00000000, 0xff1bec01, 0xf5f1e5f2,
    0x00000000, 0x00000000, 0x00000000, 0x00000000,
    0x00000000, 0x00000000, 0x00000000, 0x00000000,
    0x00000000, 0x00000000, 0x00000000, 0x000000db,
    0x0000ea1f, 0x00ed0500, 0xfc080000, 0x00000000,
    0x00000000, 0x00000000, 0x00000000, 0x00000000,
    0x00000bf4, 0x06242b0e, 0x001b2e13, 0xebede2e6,
    0x00001202, 0x001e2000, 0xe6060000, 0x0f000000,
    0x00000000, 0x00000000, 0x00000000, 0x00000000,
    0x00000000, 0x00000000, 0x00000000, 0x00000000,
    0x00000000, 0x00000000, 0x00000000, 0xf7eff502,
    0xf9d20000, 0x00000000, 0x00000000, 0x00000000,
    0x00000000, 0x00000000, 0xe7310c0d, 0x080009fb,
    0x00000000, 0x00000000, 0x00000000, 0x00000008,
    0x000001f0, 0x00f33200, 0xf80e0000, 0x0f000000,
    0x00000000, 0x00000000, 0x00000000, 0x00000000,
    0x00000000, 0x00000000, 0x00000000, 0x00000000,
    0x0000d9f5, 0xd618dfe8, 0xf9240000, 0x00000000,
    0x00000000, 0x00000000, 0xeee30fe7, 0x0f0bfe04,
    0x00000000, 0x00000000, 0x00000000, 0x00000000,
    0x00000000, 0x00000000, 0x00000000, 0x00000003,
    0x0000fcf1, 0x00db3900, 0x0d0e0000, 0x00000000,
    0x00000000, 0x00000000, 0x00000000, 0x00000000,
    0x00000000, 0x00000000, 0x0000c4f4, 0x0bfda6ff,
    0x12f00000, 0x00000000, 0xf51503f7, 0xf7f4f2e6,
    0x00000000, 0x00000000, 0x00000000, 0x00000000,
    0x00000000, 0x00000000, 0x00000000, 0x00000000,
    0x00000000, 0x00000000, 0x00000000, 0x00000005,
    0x0000c033, 0x00ef0d00, 0x0c090000, 0x00000000,
    0x00000000, 0x00000000, 0x00000000, 0x00000000,
    0x000013cd, 0xff2c49fe, 0x08100414, 0xf9f6dde7,
    0x00000808, 0x0025fe00, 0x11ed0000, 0xfc000000,
    0x00000000, 0x00000000, 0x00000000, 0x00000000,
    0x00000000, 0x00000000, 0x00000000, 0x00000000,
    0x00000000, 0x00000000, 0x00000000, 0x001503ff,
    0x02e60000, 0x00000000, 0x00000000, 0x00000000,
    0x00000000, 0x00000000, 0xe0172710, 0xfa1d1c05,
    0x00000000, 0x00000000, 0x00000000, 0x000000ea,
    0x00000b23, 0x00fc2200, 0xf2020000, 0xf2000000,
    0x00000000, 0x00000000, 0x00000000, 0x00000000,
    0x00000000, 0x00000000, 0x00000000, 0x00000000,
    0x0000eaea, 0xf033d318, 0xfa310000, 0x00000000,
    0x00000000, 0x00000000, 0xfdd400f6, 0x0102fdfa,
    0x00000000, 0x00000000, 0x00000000, 0x00000000,
    0x00000000, 0x00000000, 0x00000000, 0x00000024,
    0x00001409, 0x00c84a00, 0x1e230000, 0xf1000000,
    0x00000000, 0x00000000, 0x00000000, 0x00000000,
    0x00000000, 0x00000000, 0x0000fcc7, 0x2b0bc5df,
    0x1cef0000, 0x00000000, 0xebfb0ef2, 0xf3ef0ef8,
    0x00000000, 0x00000000, 0x00000000, 0x00000000,
    0x00000000, 0x00000000, 0x00000000, 0x00000000,
    0x00000000, 0x00000000, 0x00000000, 0x0000002f,
    0x0000f034, 0x00020000, 0x150a0000, 0x00000000,
    0x00000000, 0x00000000, 0x00000000, 0x00000000,
    0x000001e5, 0x08114c0a, 0xfffce70c, 0xf7f5f1f3,
    0x0000ff07, 0x00ffd900, 0x30e10000, 0xff000000,
    0x00000000, 0x00000000, 0x00000000, 0x00000000,
    0x00000000, 0x00000000, 0x00000000, 0x00000000,
    0x00000000, 0x00000000, 0x00000000, 0xf51bfc06,
    0x0e060000, 0x00000000, 0x00000000, 0x00000000,
    0x00000000, 0x00000000, 0xe80d24fc, 0x02181106,
    0x00000000, 0x00000000, 0x00000000, 0x00000000,
    0x0000fb09, 0x00ed2500, 0xedfb0000, 0xd4000000,
    0x00000000, 0x00000000, 0x00000000, 0x00000000,
    0x00000000, 0x00000000, 0x00000000, 0x00000000,
    0x0000fa0c, 0xe42fd2f8, 0xee460000, 0x00000000,
    0x00000000, 0x00000000, 0xf6f4f3f4, 0x030af809,
    0x00000000, 0x00000000, 0x00000000, 0x00000000,
    0x00000000, 0x00000000, 0x00000000, 0x00000017,
    0x00000501, 0x00de1a00, 0x191a0000, 0xf7000000,
    0x00000000, 0x00000000, 0x00000000, 0x00000000,
    0x00000000, 0x00000000, 0x00001a25, 0x1914e9cb,
    0x06fa0000, 0x00000000, 0xdbf20af3, 0x00ef18fa,
    0x00000000, 0x00000000, 0x00000000, 0x00000000,
    0x00000000, 0x00000000, 0x00000000, 0x00000000,
    0x00000000, 0x00000000, 0x00000000, 0x00000025,
    0x00001d1f, 0x00040f00, 0x180d0000, 0x00000000,
    0x00000000, 0x00000000, 0x00000000, 0x00000000,
    0x0000ede8, 0xf2ee13eb, 0xf3fcc30f, 0xfbf4ea03,
    0x000010fc, 0x001a0f00, 0xf93f0000, 0x0d000000,
    0x00000000, 0x00000000, 0x00000000, 0x00000000,
    0x00000000, 0x00000000, 0x00000000, 0x00000000,
    0x00000000, 0x00000000, 0x00000000, 0xf719f7fe,
    0x28ee0000, 0x00000000, 0x00000000, 0x00000000,
    0x00000000, 0x00000000, 0xcc140f01, 0x06dbf704,
    0x00000000, 0x00000000, 0x00000000, 0x00000016,
    0x000000ef, 0x00012f00, 0xf6fb0000, 0xea000000,
    0x00000000, 0x00000000, 0x00000000, 0x00000000,
    0x00000000, 0x00000000, 0x00000000, 0x00000000,
    0x0000e31c, 0x0a32f218, 0xf91b0000, 0x00000000,
    0x00000000, 0x00000000, 0xe3d321e1, 0xf2f8f9fb,
    0x00000000, 0x00000000, 0x00000000, 0x00000000,
    0x00000000, 0x00000000, 0x00000000, 0x000000f2,
    0x0000fdfc, 0x00060200, 0xfefb0000, 0x0a000000,
    0x00000000, 0x00000000, 0x00000000, 0x00000000,
    0x00000000, 0x00000000, 0x00002302, 0x1f1d150b,
    0x0eee0000, 0x00000000, 0xfb21d7f5, 0xf8f3fffe,
    0x00000000, 0x00000000, 0x00000000, 0x00000000,
    0x00000000, 0x00000000, 0x00000000, 0x00000000,
    0x00000000, 0x00000000, 0x00000000, 0x00000012,
    0x000019e8, 0x00eff700, 0x10f40000, 0x00000000,
    0x00000000, 0x00000000, 0x00000000, 0x00000000,
    0x00001004, 0xfd0be807, 0x002013ef, 0x10f8e9f4,
    0x00001f07, 0x00fbf600, 0x0c240000, 0x07000000,
    0x00000000, 0x00000000, 0x00000000, 0x00000000,
    0x00000000, 0x00000000, 0x00000000, 0x00000000,
    0x00000000, 0x00000000, 0x00000000, 0xfceeecf4,
    0x21ef0000, 0x00000000, 0x00000000, 0x00000000,
    0x00000000, 0x00000000, 0xe0211b06, 0x04e80df6,
    0x00000000, 0x00000000, 0x00000000, 0x00000007,
    0x00000201, 0x00fa1e00, 0xff0c0000, 0xd1000000,
    0x00000000, 0x00000000, 0x00000000, 0x00000000,
    0x00000000, 0x00000000, 0x00000000, 0x00000000,
    0x0000dc16, 0xf520e53c, 0xfefc0000, 0x00000000,
    0x00000000, 0x00000000, 0xede21ee3, 0xff0af2f1,
    0x00000000, 0x00000000, 0x00000000, 0x00000000,
    0x00000000, 0x00000000, 0x00000000, 0x000000d3,
    0x0000f6f8, 0x00e71300, 0x0b020000, 0xea000000,
    0x00000000, 0x00000000, 0x00000000, 0x00000000,
    0x00000000, 0x00000000, 0x0000210b, 0x19110713,
    0xf7f60000, 0x00000000, 0x131ddfed, 0xf1ecd7e2,
    0x00000000, 0x00000000, 0x00000000, 0x00000000,
    0x00000000, 0x00000000, 0x00000000, 0x00000000,
    0x00000000, 0x00000000, 0x00000000, 0x0000003a,
    0x000016d4, 0x00f9ee00, 0xeced0000, 0x00000000,
    0x00000000, 0x00000000, 0x00000000, 0x00000000,
    0x0000ec15, 0x021bcc16, 0x10191d0f, 0xfef4e7dc,
    0x00003304, 0x00f20600, 0x01160000, 0x12000000,
    0x00000000, 0x00000000, 0x00000000, 0x00000000,
    0x00000000, 0x00000000, 0x00000000, 0x00000000,
    0x00000000, 0x00000000, 0x00000000, 0x07efeff8,
    0xe8fa0000, 0x00000000, 0x00000000, 0x00000000,
    0x00000000, 0x00000000, 0xd8362805, 0x0a0d0cfd,
    0x00000000, 0x00000000, 0x00000000, 0x0000000b,
    0x0000f304, 0x00032400, 0x08110000, 0xfa000000,
    0x00000000, 0x00000000, 0x00000000, 0x00000000,
    0x00000000, 0x00000000, 0x00000000, 0x00000000,
    0x0000eff7, 0xf1ebdef1, 0xfd140000, 0x00000000,
    0x00000000, 0x00000000, 0x00eb04e5, 0x0208fb06,
    0x00000000, 0x00000000, 0x00000000, 0x00000000,
    0x00000000, 0x00000000, 0x00000000, 0x000000f8,
    0x0000f3f1, 0x00ea2500, 0x22fd0000, 0xf4000000,
    0x00000000, 0x00000000, 0x00000000, 0x00000000,
    0x00000000, 0x00000000, 0x0000aad2, 0x10ff2625,
    0xf8ee0000, 0x00000000, 0xfe0fd8df, 0xeff014eb,
    0x00000000, 0x00000000, 0x00000000, 0x00000000,
    0x00000000, 0x00000000, 0x00000000, 0x00000000,
    0x00000000, 0x00000000, 0x00000000, 0x00000044,
    0x0000fcde, 0x00f10100, 0xebfd0000, 0x00000000,
    0x00000000, 0x00000000, 0x00000000, 0x00000000,
    0x00000a16, 0xff2de215, 0x0c050312, 0xf3f1e9f2,
    0x00003700, 0x00f5fc00, 0xfffa0000, 0xf1000000,
    0x00000000, 0x00000000, 0x00000000, 0x00000000,
    0x00000000, 0x00000000, 0x00000000, 0x00000000,
    0x00000000, 0x00000000, 0x00000000, 0x19f0ebf5,
    0x012a0000, 0x00000000, 0x00000000, 0x00000000,
    0x00000000, 0x00000000, 0xd6493203, 0x041203ff,
    0x00000000, 0x00000000, 0x00000000, 0x000000f2,
    0x000006f8, 0x00fc2900, 0xfbfe0000, 0xf6000000,
    0x00000000, 0x00000000, 0x00000000, 0x00000000,
    0x00000000, 0x00000000, 0x00000000, 0x00000000,
    0x0000faee, 0xe52ae703, 0xf72c0000, 0x00000000,
    0x00000000, 0x00000000, 0xfdef26e2, 0xff040502,
    0x00000000, 0x00000000, 0x00000000, 0x00000000,
    0x00000000, 0x00000000, 0x00000000, 0x00000021,
    0x0000f606, 0x00ee0300, 0x0efa0000, 0xe6000000,
    0x00000000, 0x00000000, 0x00000000, 0x00000000,
    0x00000000, 0x00000000, 0x000020d5, 0x1c032619,
    0xfde90000, 0x00000000, 0xdefeebd9, 0xefef0b03,
    0x00000000, 0x00000000, 0x00000000, 0x00000000,
    0x00000000, 0x00000000, 0x00000000, 0x00000000,
    0x00000000, 0x00000000, 0x00000000, 0x00000029,
    0x0000f702, 0x0004f600, 0xf5f10000, 0x00000000,
    0x00000000, 0x00000000, 0x00000000, 0x00000000,
    0x0000ee07, 0x163e1016, 0xfdf0d902, 0x02eeeffd,
    0x000025ff, 0x00f9fe00, 0x14ef0000, 0x08000000,
    0x00000000, 0x00000000, 0x00000000, 0x00000000,
    0x00000000, 0x00000000, 0x00000000, 0x00000000,
    0x00000000, 0x00000000, 0x00000000, 0x1713edf6,
    0xf4220000, 0x00000000, 0x00000000, 0x00000000,
    0x00000000, 0x00000000, 0xe72b2306, 0x08050706,
    0x00000000, 0x00000000, 0x00000000, 0x00000003,
    0x00001408, 0x00f30900, 0x10fe0000, 0xdd000000,
    0x00000000, 0x00000000, 0x00000000, 0x00000000,
    0x00000000, 0x00000000, 0x00000000, 0x00000000,
    0x000002f4, 0xe4f8fd05, 0xdc1f0000, 0x00000000,
    0x00000000, 0x00000000, 0x00f70fe6, 0x110b0a08,
    0x00000000, 0x00000000, 0x00000000, 0x00000000,
    0x00000000, 0x00000000, 0x00000000, 0x00000005,
    0x0000f7f8, 0x00f4bc00, 0x00ff0000, 0xeb000000,
    0x00000000, 0x00000000, 0x00000000, 0x00000000,
    0x00000000, 0x00000000, 0x0000072c, 0x15fcee03,
    0xf5f10000, 0x00000000, 0xdfeceeea, 0xfaf7150e,
    0x00000000, 0x00000000, 0x00000000, 0x00000000,
    0x00000000, 0x00000000, 0x00000000, 0x00000000,
    0x00000000, 0x00000000, 0x00000000, 0x000000e9,
    0x0000f805, 0x00121400, 0xf5fa0000, 0x00000000,
    0x00000000, 0x00000000, 0x00000000, 0x00000000,
    0x0000e1f2, 0x070120f4, 0xf5e3ddf5, 0xf6fdf905,
    0x0000edfa, 0x00cfd300, 0x024b0000, 0x12000000,
    0x00000000, 0x00000000, 0x00000000, 0x00000000,
    0x00000000, 0x00000000, 0x00000000, 0x00000000,
    0x00000000, 0x00000000, 0x00000000, 0xfc0efe04,
    0x11df0000, 0x00000000, 0x00000000, 0x00000000,
    0x00000000, 0x00000000, 0xe01e27fa, 0x00e20400,
    0x00000000, 0x00000000, 0x00000000, 0x0000000f,
    0x0000fe02, 0x00fd1b00, 0xe9f70000, 0xf6000000,
    0x00000000, 0x00000000, 0x00000000, 0x00000000,
    0x00000000, 0x00000000, 0x00000000, 0x00000000,
    0x0000f61c, 0xfc20f4f8, 0x1b080000, 0x00000000,
    0x00000000, 0x00000000, 0xeff40bdf, 0xed08ecf6,
    0x00000000, 0x00000000, 0x00000000, 0x00000000,
    0x00000000, 0x00000000, 0x00000000, 0x00000000,
    0x000008ff, 0x00ef0600, 0x0e0c0000, 0xf3000000,
    0x00000000, 0x00000000, 0x00000000, 0x00000000,
    0x00000000, 0x00000000, 0x00000bf5, 0x13ed222a,
    0xf8100000, 0x00000000, 0x010cfbf5, 0xfcefe2f3,
    0x00000000, 0x00000000, 0x00000000, 0x00000000,
    0x00000000, 0x00000000, 0x00000000, 0x00000000,
    0x00000000, 0x00000000, 0x00000000, 0x00000006,
    0x0000ff15, 0x00f04100, 0x00000000, 0x00000000,
    0x00000000, 0x00000000, 0x00000000, 0x00000000,
    0x0000f03c, 0x04f80dee, 0x09fef314, 0x07ebf8d6,
    0x000001fd, 0x00e4e600, 0xee270000, 0x0c000000,
    0x00000000, 0x00000000, 0x00000000, 0x00000000,
    0x00000000, 0x00000000, 0x00000000, 0x00000000,
    0x00000000, 0x00000000, 0x00000000, 0xeff6fe10,
    0x16ed0000, 0x00000000, 0x00000000, 0x00000000,
    0x00000000, 0x00000000, 0x041b0cff, 0x1df106fa,
    0x00000000, 0x00000000, 0x00000000, 0x00000006,
    0x0000fa0e, 0x00023800, 0x0e180000, 0xc8000000,
    0x00000000, 0x00000000, 0x00000000, 0x00000000,
    0x00000000, 0x00000000, 0x00000000, 0x00000000,
    0x00000419, 0xf0fae91c, 0x1a100000, 0x00000000,
    0x00000000, 0x00000000, 0xfa060cfa, 0xfc16fe00,
    0x00000000, 0x00000000, 0x00000000, 0x00000000,
    0x00000000, 0x00000000, 0x00000000, 0x000000e0,
    0x0000f4f2, 0x00ed0100, 0x12010000, 0xf8000000,
    0x00000000, 0x00000000, 0x00000000, 0x00000000,
    0x00000000, 0x00000000, 0x0000d602, 0x13f24326,
    0xdafe0000, 0x00000000, 0x06fdf6ef, 0x00f2eced,
    0x00000000, 0x00000000, 0x00000000, 0x00000000,
    0x00000000, 0x00000000, 0x00000000, 0x00000000,
    0x00000000, 0x00000000, 0x00000000, 0x000000ea,
    0x0000fbf3, 0x001a1c00, 0xf5f60000, 0x00000000,
    0x00000000, 0x00000000, 0x00000000, 0x00000000,
    0x0000f12f, 0xfd0603f9, 0x09fb05e2, 0xfdf7fde0,
    0x00001a02, 0x00fd1200, 0xf80f0000, 0x27000000,
    0x00000000, 0x00000000, 0x00000000, 0x00000000,
    0x00000000, 0x00000000, 0x00000000, 0x00000000,
    0x00000000, 0x00000000, 0x00000000, 0xf4010606,
    0xfc0a0000, 0x00000000, 0x00000000, 0x00000000,
    0x00000000, 0x00000000, 0x0a190907, 0x120609f9,
    0x00000000, 0x00000000, 0x00000000, 0x0000001f,
    0x0000f9f5, 0x00002a00, 0x0a090000, 0x00000000,
    0x00000000, 0x00000000, 0x00000000, 0x00000000,
    0x00000000, 0x00000000, 0x00000000, 0x00000000,
    0x00000308, 0x00f7f6ef, 0xf5000000, 0x00000000,
    0x00000000, 0x00000000, 0xeeff07fd, 0xf802fb11,
    0x00000000, 0x00000000, 0x00000000, 0x00000000,
    0x00000000, 0x00000000, 0x00000000, 0x000000d5,
    0x0000030d, 0x000bef00, 0x15f90000, 0xfe000000,
    0x00000000, 0x00000000, 0x00000000, 0x00000000,
    0x00000000, 0x00000000, 0x0000dfe2, 0x02f8322d,
    0xf0090000, 0x00000000, 0xfcf1f3dc, 0xf5fa09fa,
    0x00000000, 0x00000000, 0x00000000, 0x00000000,
    0x00000000, 0x00000000, 0x00000000, 0x00000000,
    0x00000000, 0x00000000, 0x00000000, 0x000000cc,
    0x000004f8, 0x00041b00, 0xf5f40000, 0x00000000,
    0x00000000, 0x00000000, 0x00000000, 0x00000000,
    0x0000040c, 0xf514deee, 0x03ee0ee6, 0xf9f4f6f3,
    0x00001b0b, 0x00fdfc00, 0xf8060000, 0xf6000000,
    0x00000000, 0x00000000, 0x00000000, 0x00000000,
    0x00000000, 0x00000000, 0x00000000, 0x00000000,
    0x00000000, 0x00000000, 0x00000000, 0xffe8f201,
    0xf01e0000, 0x00000000, 0x00000000, 0x00000000,
    0x00000000, 0x00000000, 0x03180b0a, 0x03f8fcfe,
    0x00000000, 0x00000000, 0x00000000, 0x000000ff,
    0x000007fd, 0x00f50400, 0x00fb0000, 0xf6000000,
    0x00000000, 0x00000000, 0x00000000, 0x00000000,
    0x00000000, 0x00000000, 0x00000000, 0x00000000,
    0x0000fef8, 0xd822f501, 0xcf200000, 0x00000000,
    0x00000000, 0x00000000, 0xe70302f6, 0x0f0108ff,
    0x00000000, 0x00000000, 0x00000000, 0x00000000,
    0x00000000, 0x00000000, 0x00000000, 0x00000008,
    0x0000faf1, 0x0015dc00, 0x01f80000, 0xef000000,
    0x00000000, 0x00000000, 0x00000000, 0x00000000,
    0x00000000, 0x00000000, 0x000016ff, 0x1c22211b,
    0xfd000000, 0x00000000, 0xf1f804eb, 0xf0040409,
    0x00000000, 0x00000000, 0x00000000, 0x00000000,
    0x00000000, 0x00000000, 0x00000000, 0x00000000,
    0x00000000, 0x00000000, 0x00000000, 0x000000d1,
    0x0000e1f2, 0x00ff1f00, 0xeff70000, 0x00000000,
    0x00000000, 0x00000000, 0x00000000, 0x00000000,
    0x0000fcff, 0xf411b403, 0x01fbf500, 0xfafc09fa,
    0x00000a0e, 0x0001ea00, 0x06f60000, 0xed000000,
    0x00000000, 0x00000000, 0x00000000, 0x00000000,
    0x00000000, 0x00000000, 0x00000000, 0x00000000,
    0x00000000, 0x00000000, 0x00000000, 0x0fe6ec08,
    0xfb190000, 0x00000000, 0x00000000, 0x00000000,
    0x00000000, 0x00000000, 0x04421f01, 0x11030702,
    0x00000000, 0x00000000, 0x00000000, 0x000000ed,
    0x00000afc, 0x00050100, 0xf9070000, 0xea000000,
    0x00000000, 0x00000000, 0x00000000, 0x00000000,
    0x00000000, 0x00000000, 0x00000000, 0x00000000,
    0x0000fafe, 0xf40beaf4, 0xe2040000, 0x00000000,
    0x00000000, 0x00000000, 0xebff04f7, 0x06060d0f,
    0x00000000, 0x00000000, 0x00000000, 0x00000000,
    0x00000000, 0x00000000, 0x00000000, 0x0000000c,
    0x0000fbf0, 0x0007dc00, 0x03fb0000, 0xe3000000,
    0x00000000, 0x00000000, 0x00000000, 0x00000000,
    0x00000000, 0x00000000, 0x00000815, 0x0a18ec11,
    0xfdfc0000, 0x00000000, 0xf7fe06fd, 0xfafe060f,
    0x00000000, 0x00000000, 0x00000000, 0x00000000,
    0x00000000, 0x00000000, 0x00000000, 0x00000000,
    0x00000000, 0x00000000, 0x00000000, 0x000000da,
    0x0000eef8, 0x00120900, 0xecf40000, 0x00000000,
    0x00000000, 0x00000000, 0x00000000, 0x00000000,
    0x0000fb1a, 0xfd0ae5f4, 0xeffb2221, 0xf8ff0e05,
    // 0x00000605, 0x00000000, 0x00000000, 0x00000000,
    // 0x00000302, 0x00000000, 0x00000000, 0x00000000,
    // 0x0000fafc, 0x00000000, 0x00000000, 0x00000000,
    // 0x0000f002, 0x00000000, 0x00000000, 0x00000000,
    // 0x0000df01, 0x00000000, 0x00000000, 0x00000000,
    // 0x000012fd, 0x00000000, 0x00000000, 0x00000000,
    // 0x000017ff, 0x00000000, 0x00000000, 0x00000000,
    // 0x00000f04, 0x00000000, 0x00000000, 0x00000000,
    // 0x0000f20a, 0x00000000, 0x00000000, 0x00000000,
    // 0x0000effe, 0x00000000, 0x00000000, 0x00000000,
    // 0x00000306, 0x00000000, 0x00000000, 0x00000000,
    // 0x00001efa, 0x00000000, 0x00000000, 0x00000000,
    // 0x00001202, 0x00000000, 0x00000000, 0x00000000,
    // 0x00000808, 0x00000000, 0x00000000, 0x00000000,
    // 0x0000ff07, 0x00000000, 0x00000000, 0x00000000,
    // 0x000010fc, 0x00000000, 0x00000000, 0x00000000,
    // 0x00001f07, 0x00000000, 0x00000000, 0x00000000,
    // 0x00003304, 0x00000000, 0x00000000, 0x00000000,
    // 0x00003700, 0x00000000, 0x00000000, 0x00000000,
    // 0x000025ff, 0x00000000, 0x00000000, 0x00000000,
    // 0x0000edfa, 0x00000000, 0x00000000, 0x00000000,
    // 0x000001fd, 0x00000000, 0x00000000, 0x00000000,
    // 0x00001a02, 0x00000000, 0x00000000, 0x00000000,
    // 0x00001b0b, 0x00000000, 0x00000000, 0x00000000,
    // 0x00000a0e, 0x00000000, 0x00000000, 0x00000000,
    // 0x00e90100, 0x00000000, 0x00000000, 0x00000000,
    // 0x00cde700, 0x00000000, 0x00000000, 0x00000000,
    // 0x00e0e800, 0x00000000, 0x00000000, 0x00000000,
    // 0x00d6e900, 0x00000000, 0x00000000, 0x00000000,
    // 0x00e60b00, 0x00000000, 0x00000000, 0x00000000,
    // 0x0010fb00, 0x00000000, 0x00000000, 0x00000000,
    // 0x00142b00, 0x00000000, 0x00000000, 0x00000000,
    // 0x000b2900, 0x00000000, 0x00000000, 0x00000000,
    // 0x000f3800, 0x00000000, 0x00000000, 0x00000000,
    // 0x00fbfa00, 0x00000000, 0x00000000, 0x00000000,
    // 0x00fe1b00, 0x00000000, 0x00000000, 0x00000000,
    // 0x00152900, 0x00000000, 0x00000000, 0x00000000,
    // 0x001e2000, 0x00000000, 0x00000000, 0x00000000,
    // 0x0025fe00, 0x00000000, 0x00000000, 0x00000000,
    // 0x00ffd900, 0x00000000, 0x00000000, 0x00000000,
    // 0x001a0f00, 0x00000000, 0x00000000, 0x00000000,
    // 0x00fbf600, 0x00000000, 0x00000000, 0x00000000,
    // 0x00f20600, 0x00000000, 0x00000000, 0x00000000,
    // 0x00f5fc00, 0x00000000, 0x00000000, 0x00000000,
    // 0x00f9fe00, 0x00000000, 0x00000000, 0x00000000,
    // 0x00cfd300, 0x00000000, 0x00000000, 0x00000000,
    // 0x00e4e600, 0x00000000, 0x00000000, 0x00000000,
    // 0x00fd1200, 0x00000000, 0x00000000, 0x00000000,
    // 0x00fdfc00, 0x00000000, 0x00000000, 0x00000000,
    // 0x0001ea00, 0x00000000, 0x00000000, 0x00000000,
    // 0x03050000, 0x00000000, 0x00000000, 0x00000000,
    // 0x08090000, 0x00000000, 0x00000000, 0x00000000,
    // 0xf1020000, 0x00000000, 0x00000000, 0x00000000,
    // 0x01d80000, 0x00000000, 0x00000000, 0x00000000,
    // 0x1bea0000, 0x00000000, 0x00000000, 0x00000000,
    // 0xfc0d0000, 0x00000000, 0x00000000, 0x00000000,
    // 0x0a0e0000, 0x00000000, 0x00000000, 0x00000000,
    // 0xebfd0000, 0x00000000, 0x00000000, 0x00000000,
    // 0x0bea0000, 0x00000000, 0x00000000, 0x00000000,
    // 0x25e50000, 0x00000000, 0x00000000, 0x00000000,
    // 0xf6070000, 0x00000000, 0x00000000, 0x00000000,
    // 0x06f90000, 0x00000000, 0x00000000, 0x00000000,
    // 0xe6060000, 0x00000000, 0x00000000, 0x00000000,
    // 0x11ed0000, 0x00000000, 0x00000000, 0x00000000,
    // 0x30e10000, 0x00000000, 0x00000000, 0x00000000,
    // 0xf93f0000, 0x00000000, 0x00000000, 0x00000000,
    // 0x0c240000, 0x00000000, 0x00000000, 0x00000000,
    // 0x01160000, 0x00000000, 0x00000000, 0x00000000,
    // 0xfffa0000, 0x00000000, 0x00000000, 0x00000000,
    // 0x14ef0000, 0x00000000, 0x00000000, 0x00000000,
    // 0x024b0000, 0x00000000, 0x00000000, 0x00000000,
    // 0xee270000, 0x00000000, 0x00000000, 0x00000000,
    // 0xf80f0000, 0x00000000, 0x00000000, 0x00000000,
    // 0xf8060000, 0x00000000, 0x00000000, 0x00000000,
    // 0x06f60000, 0x00000000, 0x00000000, 0x00000000,
    // 0xe4000000, 0x00000005, 0x00000000, 0x00000000,
    // 0x00000000, 0x000000ec, 0x00000000, 0x00000000,
    // 0xeb000000, 0x000000fe, 0x00000000, 0x00000000,
    // 0xf5000000, 0x000000ed, 0x00000000, 0x00000000,
    // 0xfd000000, 0x000000f5, 0x00000000, 0x00000000,
    // 0xed000000, 0x000000e7, 0x00000000, 0x00000000,
    // 0x22000000, 0x00000019, 0x00000000, 0x00000000,
    // 0xfb000000, 0x000000fb, 0x00000000, 0x00000000,
    // 0xf1000000, 0x000000e8, 0x00000000, 0x00000000,
    // 0xfa000000, 0x000000e5, 0x00000000, 0x00000000,
    // 0x0c000000, 0x000000f6, 0x00000000, 0x00000000,
    // 0x12000000, 0x00000004, 0x00000000, 0x00000000,
    // 0x0f000000, 0x00000008, 0x00000000, 0x00000000,
    // 0xfc000000, 0x000000ea, 0x00000000, 0x00000000,
    // 0xff000000, 0x00000000, 0x00000000, 0x00000000,
    // 0x0d000000, 0x00000016, 0x00000000, 0x00000000,
    // 0x07000000, 0x00000007, 0x00000000, 0x00000000,
    // 0x12000000, 0x0000000b, 0x00000000, 0x00000000,
    // 0xf1000000, 0x000000f2, 0x00000000, 0x00000000,
    // 0x08000000, 0x00000003, 0x00000000, 0x00000000,
    // 0x12000000, 0x0000000f, 0x00000000, 0x00000000,
    // 0x0c000000, 0x00000006, 0x00000000, 0x00000000,
    // 0x27000000, 0x0000001f, 0x00000000, 0x00000000,
    // 0xf6000000, 0x000000ff, 0x00000000, 0x00000000,
    // 0xed000000, 0x000000ed, 0x00000000, 0x00000000,
    // 0x00000000, 0x0000f3f2, 0x00000000, 0x00000000,
    // 0x00000000, 0x000002f3, 0x00000000, 0x00000000,
    // 0x00000000, 0x00000106, 0x00000000, 0x00000000,
    // 0x00000000, 0x0000fa0b, 0x00000000, 0x00000000,
    // 0x00000000, 0x00000206, 0x00000000, 0x00000000,
    // 0x00000000, 0x000002f0, 0x00000000, 0x00000000,
    // 0x00000000, 0x0000f7ee, 0x00000000, 0x00000000,
    // 0x00000000, 0x0000fcfa, 0x00000000, 0x00000000,
    // 0x00000000, 0x0000fa1e, 0x00000000, 0x00000000,
    // 0x00000000, 0x00000406, 0x00000000, 0x00000000,
    // 0x00000000, 0x0000fff9, 0x00000000, 0x00000000,
    // 0x00000000, 0x0000eeee, 0x00000000, 0x00000000,
    // 0x00000000, 0x000001f0, 0x00000000, 0x00000000,
    // 0x00000000, 0x00000b23, 0x00000000, 0x00000000,
    // 0x00000000, 0x0000fb09, 0x00000000, 0x00000000,
    // 0x00000000, 0x000000ef, 0x00000000, 0x00000000,
    // 0x00000000, 0x00000201, 0x00000000, 0x00000000,
    // 0x00000000, 0x0000f304, 0x00000000, 0x00000000,
    // 0x00000000, 0x000006f8, 0x00000000, 0x00000000,
    // 0x00000000, 0x00001408, 0x00000000, 0x00000000,
    // 0x00000000, 0x0000fe02, 0x00000000, 0x00000000,
    // 0x00000000, 0x0000fa0e, 0x00000000, 0x00000000,
    // 0x00000000, 0x0000f9f5, 0x00000000, 0x00000000,
    // 0x00000000, 0x000007fd, 0x00000000, 0x00000000,
    // 0x00000000, 0x00000afc, 0x00000000, 0x00000000,
    // 0x00000000, 0x000bfe00, 0x00000000, 0x00000000,
    // 0x00000000, 0x00031a00, 0x00000000, 0x00000000,
    // 0x00000000, 0x00092600, 0x00000000, 0x00000000,
    // 0x00000000, 0x00041f00, 0x00000000, 0x00000000,
    // 0x00000000, 0x00ef1d00, 0x00000000, 0x00000000,
    // 0x00000000, 0x00020d00, 0x00000000, 0x00000000,
    // 0x00000000, 0x00041700, 0x00000000, 0x00000000,
    // 0x00000000, 0x00f23000, 0x00000000, 0x00000000,
    // 0x00000000, 0x00f31c00, 0x00000000, 0x00000000,
    // 0x00000000, 0x00fe2200, 0x00000000, 0x00000000,
    // 0x00000000, 0x00040400, 0x00000000, 0x00000000,
    // 0x00000000, 0x00f82500, 0x00000000, 0x00000000,
    // 0x00000000, 0x00f33200, 0x00000000, 0x00000000,
    // 0x00000000, 0x00fc2200, 0x00000000, 0x00000000,
    // 0x00000000, 0x00ed2500, 0x00000000, 0x00000000,
    // 0x00000000, 0x00012f00, 0x00000000, 0x00000000,
    // 0x00000000, 0x00fa1e00, 0x00000000, 0x00000000,
    // 0x00000000, 0x00032400, 0x00000000, 0x00000000,
    // 0x00000000, 0x00fc2900, 0x00000000, 0x00000000,
    // 0x00000000, 0x00f30900, 0x00000000, 0x00000000,
    // 0x00000000, 0x00fd1b00, 0x00000000, 0x00000000,
    // 0x00000000, 0x00023800, 0x00000000, 0x00000000,
    // 0x00000000, 0x00002a00, 0x00000000, 0x00000000,
    // 0x00000000, 0x00f50400, 0x00000000, 0x00000000,
    // 0x00000000, 0x00050100, 0x00000000, 0x00000000,
    // 0x00000000, 0xf4fd0000, 0x00000000, 0x00000000,
    // 0x00000000, 0xf5f70000, 0x00000000, 0x00000000,
    // 0x00000000, 0xf5f00000, 0x00000000, 0x00000000,
    // 0x00000000, 0xf2f40000, 0x00000000, 0x00000000,
    // 0x00000000, 0xf6fa0000, 0x00000000, 0x00000000,
    // 0x00000000, 0xf1f40000, 0x00000000, 0x00000000,
    // 0x00000000, 0xee030000, 0x00000000, 0x00000000,
    // 0x00000000, 0x06ff0000, 0x00000000, 0x00000000,
    // 0x00000000, 0xffff0000, 0x00000000, 0x00000000,
    // 0x00000000, 0xfd010000, 0x00000000, 0x00000000,
    // 0x00000000, 0xf5020000, 0x00000000, 0x00000000,
    // 0x00000000, 0x02fe0000, 0x00000000, 0x00000000,
    // 0x00000000, 0xf80e0000, 0x00000000, 0x00000000,
    // 0x00000000, 0xf2020000, 0x00000000, 0x00000000,
    // 0x00000000, 0xedfb0000, 0x00000000, 0x00000000,
    // 0x00000000, 0xf6fb0000, 0x00000000, 0x00000000,
    // 0x00000000, 0xff0c0000, 0x00000000, 0x00000000,
    // 0x00000000, 0x08110000, 0x00000000, 0x00000000,
    // 0x00000000, 0xfbfe0000, 0x00000000, 0x00000000,
    // 0x00000000, 0x10fe0000, 0x00000000, 0x00000000,
    // 0x00000000, 0xe9f70000, 0x00000000, 0x00000000,
    // 0x00000000, 0x0e180000, 0x00000000, 0x00000000,
    // 0x00000000, 0x0a090000, 0x00000000, 0x00000000,
    // 0x00000000, 0x00fb0000, 0x00000000, 0x00000000,
    // 0x00000000, 0xf9070000, 0x00000000, 0x00000000,
    // 0x00000000, 0x08000000, 0x000000fa, 0x00000000,
    // 0x00000000, 0x0e000000, 0x00000009, 0x00000000,
    // 0x00000000, 0xf9000000, 0x0000001b, 0x00000000,
    // 0x00000000, 0xfe000000, 0x00000010, 0x00000000,
    // 0x00000000, 0xca000000, 0x000000e7, 0x00000000,
    // 0x00000000, 0x05000000, 0x000000f2, 0x00000000,
    // 0x00000000, 0x23000000, 0x000000fc, 0x00000000,
    // 0x00000000, 0x1f000000, 0x0000000f, 0x00000000,
    // 0x00000000, 0x14000000, 0x0000002c, 0x00000000,
    // 0x00000000, 0xd3000000, 0x0000000c, 0x00000000,
    // 0x00000000, 0xde000000, 0x000000ed, 0x00000000,
    // 0x00000000, 0xfc000000, 0x000000f5, 0x00000000,
    // 0x00000000, 0x0f000000, 0x00000003, 0x00000000,
    // 0x00000000, 0xf2000000, 0x00000024, 0x00000000,
    // 0x00000000, 0xd4000000, 0x00000017, 0x00000000,
    // 0x00000000, 0xea000000, 0x000000f2, 0x00000000,
    // 0x00000000, 0xd1000000, 0x000000d3, 0x00000000,
    // 0x00000000, 0xfa000000, 0x000000f8, 0x00000000,
    // 0x00000000, 0xf6000000, 0x00000021, 0x00000000,
    // 0x00000000, 0xdd000000, 0x00000005, 0x00000000,
    // 0x00000000, 0xf6000000, 0x00000000, 0x00000000,
    // 0x00000000, 0xc8000000, 0x000000e0, 0x00000000,
    // 0x00000000, 0x00000000, 0x000000d5, 0x00000000,
    // 0x00000000, 0xf6000000, 0x00000008, 0x00000000,
    // 0x00000000, 0xea000000, 0x0000000c, 0x00000000,
    // 0x00000000, 0x00000000, 0x0000f6fa, 0x00000000,
    // 0x00000000, 0x00000000, 0x00000500, 0x00000000,
    // 0x00000000, 0x00000000, 0x0000fdfa, 0x00000000,
    // 0x00000000, 0x00000000, 0x00000e08, 0x00000000,
    // 0x00000000, 0x00000000, 0x000000f9, 0x00000000,
    // 0x00000000, 0x00000000, 0x00000101, 0x00000000,
    // 0x00000000, 0x00000000, 0x0000e9fb, 0x00000000,
    // 0x00000000, 0x00000000, 0x0000f6ff, 0x00000000,
    // 0x00000000, 0x00000000, 0x00000d00, 0x00000000,
    // 0x00000000, 0x00000000, 0x00000803, 0x00000000,
    // 0x00000000, 0x00000000, 0x0000f9f9, 0x00000000,
    // 0x00000000, 0x00000000, 0x000002f8, 0x00000000,
    // 0x00000000, 0x00000000, 0x0000fcf1, 0x00000000,
    // 0x00000000, 0x00000000, 0x00001409, 0x00000000,
    // 0x00000000, 0x00000000, 0x00000501, 0x00000000,
    // 0x00000000, 0x00000000, 0x0000fdfc, 0x00000000,
    // 0x00000000, 0x00000000, 0x0000f6f8, 0x00000000,
    // 0x00000000, 0x00000000, 0x0000f3f1, 0x00000000,
    // 0x00000000, 0x00000000, 0x0000f606, 0x00000000,
    // 0x00000000, 0x00000000, 0x0000f7f8, 0x00000000,
    // 0x00000000, 0x00000000, 0x000008ff, 0x00000000,
    // 0x00000000, 0x00000000, 0x0000f4f2, 0x00000000,
    // 0x00000000, 0x00000000, 0x0000030d, 0x00000000,
    // 0x00000000, 0x00000000, 0x0000faf1, 0x00000000,
    // 0x00000000, 0x00000000, 0x0000fbf0, 0x00000000,
    // 0x00000000, 0x00000000, 0x00fef400, 0x00000000,
    // 0x00000000, 0x00000000, 0x0008f800, 0x00000000,
    // 0x00000000, 0x00000000, 0x000df400, 0x00000000,
    // 0x00000000, 0x00000000, 0x00071700, 0x00000000,
    // 0x00000000, 0x00000000, 0x00fa0e00, 0x00000000,
    // 0x00000000, 0x00000000, 0x0015f900, 0x00000000,
    // 0x00000000, 0x00000000, 0x0003c100, 0x00000000,
    // 0x00000000, 0x00000000, 0x00ef0900, 0x00000000,
    // 0x00000000, 0x00000000, 0x00e24f00, 0x00000000,
    // 0x00000000, 0x00000000, 0x00e34700, 0x00000000,
    // 0x00000000, 0x00000000, 0x000de800, 0x00000000,
    // 0x00000000, 0x00000000, 0x00e90a00, 0x00000000,
    // 0x00000000, 0x00000000, 0x00db3900, 0x00000000,
    // 0x00000000, 0x00000000, 0x00c84a00, 0x00000000,
    // 0x00000000, 0x00000000, 0x00de1a00, 0x00000000,
    // 0x00000000, 0x00000000, 0x00060200, 0x00000000,
    // 0x00000000, 0x00000000, 0x00e71300, 0x00000000,
    // 0x00000000, 0x00000000, 0x00ea2500, 0x00000000,
    // 0x00000000, 0x00000000, 0x00ee0300, 0x00000000,
    // 0x00000000, 0x00000000, 0x00f4bc00, 0x00000000,
    // 0x00000000, 0x00000000, 0x00ef0600, 0x00000000,
    // 0x00000000, 0x00000000, 0x00ed0100, 0x00000000,
    // 0x00000000, 0x00000000, 0x000bef00, 0x00000000,
    // 0x00000000, 0x00000000, 0x0015dc00, 0x00000000,
    // 0x00000000, 0x00000000, 0x0007dc00, 0x00000000,
    // 0x00000000, 0x00000000, 0x04f90000, 0x00000000,
    // 0x00000000, 0x00000000, 0x03f00000, 0x00000000,
    // 0x00000000, 0x00000000, 0x03020000, 0x00000000,
    // 0x00000000, 0x00000000, 0x1c120000, 0x00000000,
    // 0x00000000, 0x00000000, 0x192d0000, 0x00000000,
    // 0x00000000, 0x00000000, 0xf8fd0000, 0x00000000,
    // 0x00000000, 0x00000000, 0x12ff0000, 0x00000000,
    // 0x00000000, 0x00000000, 0xf30a0000, 0x00000000,
    // 0x00000000, 0x00000000, 0x16020000, 0x00000000,
    // 0x00000000, 0x00000000, 0x1e1f0000, 0x00000000,
    // 0x00000000, 0x00000000, 0xfbef0000, 0x00000000,
    // 0x00000000, 0x00000000, 0x0ef00000, 0x00000000,
    // 0x00000000, 0x00000000, 0x0d0e0000, 0x00000000,
    // 0x00000000, 0x00000000, 0x1e230000, 0x00000000,
    // 0x00000000, 0x00000000, 0x191a0000, 0x00000000,
    // 0x00000000, 0x00000000, 0xfefb0000, 0x00000000,
    // 0x00000000, 0x00000000, 0x0b020000, 0x00000000,
    // 0x00000000, 0x00000000, 0x22fd0000, 0x00000000,
    // 0x00000000, 0x00000000, 0x0efa0000, 0x00000000,
    // 0x00000000, 0x00000000, 0x00ff0000, 0x00000000,
    // 0x00000000, 0x00000000, 0x0e0c0000, 0x00000000,
    // 0x00000000, 0x00000000, 0x12010000, 0x00000000,
    // 0x00000000, 0x00000000, 0x15f90000, 0x00000000,
    // 0x00000000, 0x00000000, 0x01f80000, 0x00000000,
    // 0x00000000, 0x00000000, 0x03fb0000, 0x00000000,
    // 0x00000000, 0x00000000, 0x09000000, 0x000000fa,
    // 0x00000000, 0x00000000, 0x00000000, 0x00000006,
    // 0x00000000, 0x00000000, 0x07000000, 0x00000016,
    // 0x00000000, 0x00000000, 0x13000000, 0x000000f7,
    // 0x00000000, 0x00000000, 0x0e000000, 0x000000e9,
    // 0x00000000, 0x00000000, 0xf4000000, 0x0000000d,
    // 0x00000000, 0x00000000, 0x08000000, 0x00000002,
    // 0x00000000, 0x00000000, 0x09000000, 0x000000e5,
    // 0x00000000, 0x00000000, 0xf6000000, 0x000000e4,
    // 0x00000000, 0x00000000, 0xf8000000, 0x000000e7,
    // 0x00000000, 0x00000000, 0x07000000, 0x000000e0,
    // 0x00000000, 0x00000000, 0x07000000, 0x000000db,
    // 0x00000000, 0x00000000, 0x00000000, 0x00000005,
    // 0x00000000, 0x00000000, 0xf1000000, 0x0000002f,
    // 0x00000000, 0x00000000, 0xf7000000, 0x00000025,
    // 0x00000000, 0x00000000, 0x0a000000, 0x00000012,
    // 0x00000000, 0x00000000, 0xea000000, 0x0000003a,
    // 0x00000000, 0x00000000, 0xf4000000, 0x00000044,
    // 0x00000000, 0x00000000, 0xe6000000, 0x00000029,
    // 0x00000000, 0x00000000, 0xeb000000, 0x000000e9,
    // 0x00000000, 0x00000000, 0xf3000000, 0x00000006,
    // 0x00000000, 0x00000000, 0xf8000000, 0x000000ea,
    // 0x00000000, 0x00000000, 0xfe000000, 0x000000cc,
    // 0x00000000, 0x00000000, 0xef000000, 0x000000d1,
    // 0x00000000, 0x00000000, 0xe3000000, 0x000000da,
    // 0x00000000, 0x00000000, 0x00000000, 0x0000ed01,
    // 0x00000000, 0x00000000, 0x00000000, 0x000018fb,
    // 0x00000000, 0x00000000, 0x00000000, 0x000000ea,
    // 0x00000000, 0x00000000, 0x00000000, 0x0000d501,
    // 0x00000000, 0x00000000, 0x00000000, 0x0000cf18,
    // 0x00000000, 0x00000000, 0x00000000, 0x0000e6fc,
    // 0x00000000, 0x00000000, 0x00000000, 0x0000fd13,
    // 0x00000000, 0x00000000, 0x00000000, 0x00003d0c,
    // 0x00000000, 0x00000000, 0x00000000, 0x000054de,
    // 0x00000000, 0x00000000, 0x00000000, 0x000034df,
    // 0x00000000, 0x00000000, 0x00000000, 0x000007ef,
    // 0x00000000, 0x00000000, 0x00000000, 0x0000ea1f,
    // 0x00000000, 0x00000000, 0x00000000, 0x0000c033,
    // 0x00000000, 0x00000000, 0x00000000, 0x0000f034,
    // 0x00000000, 0x00000000, 0x00000000, 0x00001d1f,
    // 0x00000000, 0x00000000, 0x00000000, 0x000019e8,
    // 0x00000000, 0x00000000, 0x00000000, 0x000016d4,
    // 0x00000000, 0x00000000, 0x00000000, 0x0000fcde,
    // 0x00000000, 0x00000000, 0x00000000, 0x0000f702,
    // 0x00000000, 0x00000000, 0x00000000, 0x0000f805,
    // 0x00000000, 0x00000000, 0x00000000, 0x0000ff15,
    // 0x00000000, 0x00000000, 0x00000000, 0x0000fbf3,
    // 0x00000000, 0x00000000, 0x00000000, 0x000004f8,
    // 0x00000000, 0x00000000, 0x00000000, 0x0000e1f2,
    // 0x00000000, 0x00000000, 0x00000000, 0x0000eef8,
    // 0x00000000, 0x00000000, 0x00000000, 0x00fbfc00,
    // 0x00000000, 0x00000000, 0x00000000, 0x00060300,
    // 0x00000000, 0x00000000, 0x00000000, 0x0002e600,
    // 0x00000000, 0x00000000, 0x00000000, 0x0003f500,
    // 0x00000000, 0x00000000, 0x00000000, 0x00fdff00,
    // 0x00000000, 0x00000000, 0x00000000, 0x00faf100,
    // 0x00000000, 0x00000000, 0x00000000, 0x00faf100,
    // 0x00000000, 0x00000000, 0x00000000, 0x0000e800,
    // 0x00000000, 0x00000000, 0x00000000, 0x00eef800,
    // 0x00000000, 0x00000000, 0x00000000, 0x00f41500,
    // 0x00000000, 0x00000000, 0x00000000, 0x00f7f200,
    // 0x00000000, 0x00000000, 0x00000000, 0x00ed0500,
    // 0x00000000, 0x00000000, 0x00000000, 0x00ef0d00,
    // 0x00000000, 0x00000000, 0x00000000, 0x00020000,
    // 0x00000000, 0x00000000, 0x00000000, 0x00040f00,
    // 0x00000000, 0x00000000, 0x00000000, 0x00eff700,
    // 0x00000000, 0x00000000, 0x00000000, 0x00f9ee00,
    // 0x00000000, 0x00000000, 0x00000000, 0x00f10100,
    // 0x00000000, 0x00000000, 0x00000000, 0x0004f600,
    // 0x00000000, 0x00000000, 0x00000000, 0x00121400,
    // 0x00000000, 0x00000000, 0x00000000, 0x00f04100,
    // 0x00000000, 0x00000000, 0x00000000, 0x001a1c00,
    // 0x00000000, 0x00000000, 0x00000000, 0x00041b00,
    // 0x00000000, 0x00000000, 0x00000000, 0x00ff1f00,
    // 0x00000000, 0x00000000, 0x00000000, 0x00120900,
    // 0x00000000, 0x00000000, 0x00000000, 0xf0290000,
    // 0x00000000, 0x00000000, 0x00000000, 0x13300000,
    // 0x00000000, 0x00000000, 0x00000000, 0x0f240000,
    // 0x00000000, 0x00000000, 0x00000000, 0x0b260000,
    // 0x00000000, 0x00000000, 0x00000000, 0x060b0000,
    // 0x00000000, 0x00000000, 0x00000000, 0xfd280000,
    // 0x00000000, 0x00000000, 0x00000000, 0x031f0000,
    // 0x00000000, 0x00000000, 0x00000000, 0x1d0f0000,
    // 0x00000000, 0x00000000, 0x00000000, 0x18000000,
    // 0x00000000, 0x00000000, 0x00000000, 0x0cfd0000,
    // 0x00000000, 0x00000000, 0x00000000, 0x04040000,
    // 0x00000000, 0x00000000, 0x00000000, 0xfc080000,
    // 0x00000000, 0x00000000, 0x00000000, 0x0c090000,
    // 0x00000000, 0x00000000, 0x00000000, 0x150a0000,
    // 0x00000000, 0x00000000, 0x00000000, 0x180d0000,
    // 0x00000000, 0x00000000, 0x00000000, 0x10f40000,
    // 0x00000000, 0x00000000, 0x00000000, 0xeced0000,
    // 0x00000000, 0x00000000, 0x00000000, 0xebfd0000,
    // 0x00000000, 0x00000000, 0x00000000, 0xf5f10000,
    // 0x00000000, 0x00000000, 0x00000000, 0xf5fa0000,
    // 0x00000000, 0x00000000, 0x00000000, 0x00000000,
    // 0x00000000, 0x00000000, 0x00000000, 0xf5f60000,
    // 0x00000000, 0x00000000, 0x00000000, 0xf5f40000,
    // 0x00000000, 0x00000000, 0x00000000, 0xeff70000,
    // 0x00000000, 0x00000000, 0x00000000, 0xecf40000,
    // 0xe7070b01, 0x00000000, 0x00000000, 0x00000000,
    // 0xdd152d06, 0x00000000, 0x00000000, 0x00000000,
    // 0xeb0f3a05, 0x00000000, 0x00000000, 0x00000000,
    // 0xf321320a, 0x00000000, 0x00000000, 0x00000000,
    // 0xec191703, 0x00000000, 0x00000000, 0x00000000,
    // 0xe6fdfffd, 0x00000000, 0x00000000, 0x00000000,
    // 0xdd1e0f00, 0x00000000, 0x00000000, 0x00000000,
    // 0xea331207, 0x00000000, 0x00000000, 0x00000000,
    // 0xf31a04fe, 0x00000000, 0x00000000, 0x00000000,
    // 0xe623ff09, 0x00000000, 0x00000000, 0x00000000,
    // 0xf1edfc00, 0x00000000, 0x00000000, 0x00000000,
    // 0xf4e1ffff, 0x00000000, 0x00000000, 0x00000000,
    // 0xf7eff502, 0x00000000, 0x00000000, 0x00000000,
    // 0x001503ff, 0x00000000, 0x00000000, 0x00000000,
    // 0xf51bfc06, 0x00000000, 0x00000000, 0x00000000,
    // 0xf719f7fe, 0x00000000, 0x00000000, 0x00000000,
    // 0xfceeecf4, 0x00000000, 0x00000000, 0x00000000,
    // 0x07efeff8, 0x00000000, 0x00000000, 0x00000000,
    // 0x19f0ebf5, 0x00000000, 0x00000000, 0x00000000,
    // 0x1713edf6, 0x00000000, 0x00000000, 0x00000000,
    // 0xfc0efe04, 0x00000000, 0x00000000, 0x00000000,
    // 0xeff6fe10, 0x00000000, 0x00000000, 0x00000000,
    // 0xf4010606, 0x00000000, 0x00000000, 0x00000000,
    // 0xffe8f201, 0x00000000, 0x00000000, 0x00000000,
    // 0x0fe6ec08, 0x00000000, 0x00000000, 0x00000000,
    // 0x02e40000, 0x0000e3f0, 0x00000000, 0x00000000,
    // 0xf8e60000, 0x0000e7ea, 0x00000000, 0x00000000,
    // 0x19e70000, 0x0000e802, 0x00000000, 0x00000000,
    // 0xffc80000, 0x0000e002, 0x00000000, 0x00000000,
    // 0x03e20000, 0x0000ebf3, 0x00000000, 0x00000000,
    // 0x16e90000, 0x0000dcff, 0x00000000, 0x00000000,
    // 0x0ff60000, 0x0000eb08, 0x00000000, 0x00000000,
    // 0x16e90000, 0x0000e203, 0x00000000, 0x00000000,
    // 0xfabb0000, 0x0000e8e4, 0x00000000, 0x00000000,
    // 0x0deb0000, 0x0000e5fc, 0x00000000, 0x00000000,
    // 0x2af90000, 0x0000ed18, 0x00000000, 0x00000000,
    // 0x1bf30000, 0x0000e118, 0x00000000, 0x00000000,
    // 0xf9d20000, 0x0000d9f5, 0x00000000, 0x00000000,
    // 0x02e60000, 0x0000eaea, 0x00000000, 0x00000000,
    // 0x0e060000, 0x0000fa0c, 0x00000000, 0x00000000,
    // 0x28ee0000, 0x0000e31c, 0x00000000, 0x00000000,
    // 0x21ef0000, 0x0000dc16, 0x00000000, 0x00000000,
    // 0xe8fa0000, 0x0000eff7, 0x00000000, 0x00000000,
    // 0x012a0000, 0x0000faee, 0x00000000, 0x00000000,
    // 0xf4220000, 0x000002f4, 0x00000000, 0x00000000,
    // 0x11df0000, 0x0000f61c, 0x00000000, 0x00000000,
    // 0x16ed0000, 0x00000419, 0x00000000, 0x00000000,
    // 0xfc0a0000, 0x00000308, 0x00000000, 0x00000000,
    // 0xf01e0000, 0x0000fef8, 0x00000000, 0x00000000,
    // 0xfb190000, 0x0000fafe, 0x00000000, 0x00000000,
    // 0x00000000, 0xf500ecfb, 0x00000000, 0x00000000,
    // 0x00000000, 0xe3f02efa, 0x00000000, 0x00000000,
    // 0x00000000, 0x14051bdd, 0x00000000, 0x00000000,
    // 0x00000000, 0x3814f22b, 0x00000000, 0x00000000,
    // 0x00000000, 0x07ecf501, 0x00000000, 0x00000000,
    // 0x00000000, 0x351ff101, 0x00000000, 0x00000000,
    // 0x00000000, 0x14f0ed1f, 0x00000000, 0x00000000,
    // 0x00000000, 0xc518e9f1, 0x00000000, 0x00000000,
    // 0x00000000, 0x031add1e, 0x00000000, 0x00000000,
    // 0x00000000, 0x0208e8f0, 0x00000000, 0x00000000,
    // 0x00000000, 0x1359ee1d, 0x00000000, 0x00000000,
    // 0x00000000, 0x0c0dda29, 0x00000000, 0x00000000,
    // 0x00000000, 0xd618dfe8, 0x00000000, 0x00000000,
    // 0x00000000, 0xf033d318, 0x00000000, 0x00000000,
    // 0x00000000, 0xe42fd2f8, 0x00000000, 0x00000000,
    // 0x00000000, 0x0a32f218, 0x00000000, 0x00000000,
    // 0x00000000, 0xf520e53c, 0x00000000, 0x00000000,
    // 0x00000000, 0xf1ebdef1, 0x00000000, 0x00000000,
    // 0x00000000, 0xe52ae703, 0x00000000, 0x00000000,
    // 0x00000000, 0xe4f8fd05, 0x00000000, 0x00000000,
    // 0x00000000, 0xfc20f4f8, 0x00000000, 0x00000000,
    // 0x00000000, 0xf0fae91c, 0x00000000, 0x00000000,
    // 0x00000000, 0x00f7f6ef, 0x00000000, 0x00000000,
    // 0x00000000, 0xd822f501, 0x00000000, 0x00000000,
    // 0x00000000, 0xf40beaf4, 0x00000000, 0x00000000,
    // 0x00000000, 0x0ffa0000, 0x0000ea06, 0x00000000,
    // 0x00000000, 0xf7eb0000, 0x0000e9eb, 0x00000000,
    // 0x00000000, 0xe4fa0000, 0x0000f1de, 0x00000000,
    // 0x00000000, 0xf9f80000, 0x0000cef9, 0x00000000,
    // 0x00000000, 0xfb070000, 0x0000ff0f, 0x00000000,
    // 0x00000000, 0x17010000, 0x0000e332, 0x00000000,
    // 0x00000000, 0xf3f40000, 0x0000f810, 0x00000000,
    // 0x00000000, 0xe0180000, 0x0000e0d1, 0x00000000,
    // 0x00000000, 0x231b0000, 0x0000cfca, 0x00000000,
    // 0x00000000, 0xf1280000, 0x00000314, 0x00000000,
    // 0x00000000, 0x08200000, 0x00002e2c, 0x00000000,
    // 0x00000000, 0xd3040000, 0x00002723, 0x00000000,
    // 0x00000000, 0xf9240000, 0x0000c4f4, 0x00000000,
    // 0x00000000, 0xfa310000, 0x0000fcc7, 0x00000000,
    // 0x00000000, 0xee460000, 0x00001a25, 0x00000000,
    // 0x00000000, 0xf91b0000, 0x00002302, 0x00000000,
    // 0x00000000, 0xfefc0000, 0x0000210b, 0x00000000,
    // 0x00000000, 0xfd140000, 0x0000aad2, 0x00000000,
    // 0x00000000, 0xf72c0000, 0x000020d5, 0x00000000,
    // 0x00000000, 0xdc1f0000, 0x0000072c, 0x00000000,
    // 0x00000000, 0x1b080000, 0x00000bf5, 0x00000000,
    // 0x00000000, 0x1a100000, 0x0000d602, 0x00000000,
    // 0x00000000, 0xf5000000, 0x0000dfe2, 0x00000000,
    // 0x00000000, 0xcf200000, 0x000016ff, 0x00000000,
    // 0x00000000, 0xe2040000, 0x00000815, 0x00000000,
    // 0x00000000, 0x00000000, 0x1912cee6, 0x00000000,
    // 0x00000000, 0x00000000, 0xf50bd1c8, 0x00000000,
    // 0x00000000, 0x00000000, 0xf905e8cc, 0x00000000,
    // 0x00000000, 0x00000000, 0xf30108ea, 0x00000000,
    // 0x00000000, 0x00000000, 0xfd05171d, 0x00000000,
    // 0x00000000, 0x00000000, 0x1ffdccf9, 0x00000000,
    // 0x00000000, 0x00000000, 0x1a07cfe9, 0x00000000,
    // 0x00000000, 0x00000000, 0x1b26c2d4, 0x00000000,
    // 0x00000000, 0x00000000, 0x0833e1c6, 0x00000000,
    // 0x00000000, 0x00000000, 0x163706de, 0x00000000,
    // 0x00000000, 0x00000000, 0x140cfe03, 0x00000000,
    // 0x00000000, 0x00000000, 0x1309c108, 0x00000000,
    // 0x00000000, 0x00000000, 0x0bfda6ff, 0x00000000,
    // 0x00000000, 0x00000000, 0x2b0bc5df, 0x00000000,
    // 0x00000000, 0x00000000, 0x1914e9cb, 0x00000000,
    // 0x00000000, 0x00000000, 0x1f1d150b, 0x00000000,
    // 0x00000000, 0x00000000, 0x19110713, 0x00000000,
    // 0x00000000, 0x00000000, 0x10ff2625, 0x00000000,
    // 0x00000000, 0x00000000, 0x1c032619, 0x00000000,
    // 0x00000000, 0x00000000, 0x15fcee03, 0x00000000,
    // 0x00000000, 0x00000000, 0x13ed222a, 0x00000000,
    // 0x00000000, 0x00000000, 0x13f24326, 0x00000000,
    // 0x00000000, 0x00000000, 0x02f8322d, 0x00000000,
    // 0x00000000, 0x00000000, 0x1c22211b, 0x00000000,
    // 0x00000000, 0x00000000, 0x0a18ec11, 0x00000000,
    // 0x00000000, 0x00000000, 0x1d0c0000, 0x000021f5,
    // 0x00000000, 0x00000000, 0x17120000, 0x000021f8,
    // 0x00000000, 0x00000000, 0x1a000000, 0x00001ff8,
    // 0x00000000, 0x00000000, 0x12f20000, 0x00000fee,
    // 0x00000000, 0x00000000, 0x0aff0000, 0x000002ef,
    // 0x00000000, 0x00000000, 0x0f040000, 0x000000e9,
    // 0x00000000, 0x00000000, 0x35180000, 0x000020fb,
    // 0x00000000, 0x00000000, 0x140e0000, 0x00001de2,
    // 0x00000000, 0x00000000, 0x1c020000, 0x00000be7,
    // 0x00000000, 0x00000000, 0x07010000, 0x0000eaf2,
    // 0x00000000, 0x00000000, 0x0ef50000, 0x0000ebe2,
    // 0x00000000, 0x00000000, 0x12f80000, 0x00000bf4,
    // 0x00000000, 0x00000000, 0x12f00000, 0x000013cd,
    // 0x00000000, 0x00000000, 0x1cef0000, 0x000001e5,
    // 0x00000000, 0x00000000, 0x06fa0000, 0x0000ede8,
    // 0x00000000, 0x00000000, 0x0eee0000, 0x00001004,
    // 0x00000000, 0x00000000, 0xf7f60000, 0x0000ec15,
    // 0x00000000, 0x00000000, 0xf8ee0000, 0x00000a16,
    // 0x00000000, 0x00000000, 0xfde90000, 0x0000ee07,
    // 0x00000000, 0x00000000, 0xf5f10000, 0x0000e1f2,
    // 0x00000000, 0x00000000, 0xf8100000, 0x0000f03c,
    // 0x00000000, 0x00000000, 0xdafe0000, 0x0000f12f,
    // 0x00000000, 0x00000000, 0xf0090000, 0x0000040c,
    // 0x00000000, 0x00000000, 0xfd000000, 0x0000fcff,
    // 0x00000000, 0x00000000, 0xfdfc0000, 0x0000fb1a,
    // 0x00000000, 0x00000000, 0x00000000, 0xf3fff2f1,
    // 0x00000000, 0x00000000, 0x00000000, 0x00e2f4f7,
    // 0x00000000, 0x00000000, 0x00000000, 0xf6e4ecf6,
    // 0x00000000, 0x00000000, 0x00000000, 0xf5e7cbfe,
    // 0x00000000, 0x00000000, 0x00000000, 0xeefad408,
    // 0x00000000, 0x00000000, 0x00000000, 0xf9ede90a,
    // 0x00000000, 0x00000000, 0x00000000, 0xf10614f6,
    // 0x00000000, 0x00000000, 0x00000000, 0xf0f413e6,
    // 0x00000000, 0x00000000, 0x00000000, 0xe7f417e8,
    // 0x00000000, 0x00000000, 0x00000000, 0xed030dee,
    // 0x00000000, 0x00000000, 0x00000000, 0xf70ce50a,
    // 0x00000000, 0x00000000, 0x00000000, 0x06242b0e,
    // 0x00000000, 0x00000000, 0x00000000, 0xff2c49fe,
    // 0x00000000, 0x00000000, 0x00000000, 0x08114c0a,
    // 0x00000000, 0x00000000, 0x00000000, 0xf2ee13eb,
    // 0x00000000, 0x00000000, 0x00000000, 0xfd0be807,
    // 0x00000000, 0x00000000, 0x00000000, 0x021bcc16,
    // 0x00000000, 0x00000000, 0x00000000, 0xff2de215,
    // 0x00000000, 0x00000000, 0x00000000, 0x163e1016,
    // 0x00000000, 0x00000000, 0x00000000, 0x070120f4,
    // 0x00000000, 0x00000000, 0x00000000, 0x04f80dee,
    // 0x00000000, 0x00000000, 0x00000000, 0xfd0603f9,
    // 0x00000000, 0x00000000, 0x00000000, 0xf514deee,
    // 0x00000000, 0x00000000, 0x00000000, 0xf411b403,
    // 0x00000000, 0x00000000, 0x00000000, 0xfd0ae5f4,
    // 0x050b11ff, 0x01fdf70d, 0xf4fd0803, 0xfbfa0ffa,
    // 0x020308ff, 0x061804f5, 0x0feeeffe, 0x0afb17fb,
    // 0x13090304, 0x08130d08, 0xf0f508ff, 0x110200ed,
    // 0xffff1309, 0x0b0afc0b, 0xfff81df6, 0x07f0f3ed,
    // 0x02223a0a, 0x0f131303, 0xecfd100b, 0xfc04091c,
    // 0xf50b0907, 0xf00010fc, 0xfb05f50f, 0xe703ff20,
    // 0x04feff08, 0xfcfd0bfd, 0x100bf707, 0xf6140f0f,
    // 0x10ea1211, 0x0709000a, 0x0307090c, 0x09082406,
    // 0x1606330b, 0xfa16f213, 0xec061f02, 0x140f101c,
    // 0x031e3507, 0xf209f404, 0xf4fc1411, 0xfc0cf22a,
    // 0xd805f307, 0xfed710e0, 0x0118e3fc, 0xf712f916,
    // 0xe4170808, 0xe9e31ce3, 0xff1bec01, 0x001b2e13,
    // 0xe7310c0d, 0xeee30fe7, 0xf51503f7, 0x08100414,
    // 0xe0172710, 0xfdd400f6, 0xebfb0ef2, 0xfffce70c,
    // 0xe80d24fc, 0xf6f4f3f4, 0xdbf20af3, 0xf3fcc30f,
    // 0xcc140f01, 0xe3d321e1, 0xfb21d7f5, 0x002013ef,
    // 0xe0211b06, 0xede21ee3, 0x131ddfed, 0x10191d0f,
    // 0xd8362805, 0x00eb04e5, 0xfe0fd8df, 0x0c050312,
    // 0xd6493203, 0xfdef26e2, 0xdefeebd9, 0xfdf0d902,
    // 0xe72b2306, 0x00f70fe6, 0xdfeceeea, 0xf5e3ddf5,
    // 0xe01e27fa, 0xeff40bdf, 0x010cfbf5, 0x09fef314,
    // 0x041b0cff, 0xfa060cfa, 0x06fdf6ef, 0x09fb05e2,
    // 0x0a190907, 0xeeff07fd, 0xfcf1f3dc, 0x03ee0ee6,
    // 0x03180b0a, 0xe70302f6, 0xf1f804eb, 0x01fbf500,
    // 0x04421f01, 0xebff04f7, 0xf7fe06fd, 0xeffb2221,
    // 0x21001400, 0xf71aea17, 0xeef4244d, 0x1afa0913,
    // 0x10faf206, 0xd709f1ff, 0xebff101b, 0xf906f606,
    // 0x0a01e3f8, 0xeb02f2fc, 0xfffe0606, 0x0a00eaf3,
    // 0xf8f7fafc, 0xf807f2f9, 0x01f9defc, 0xff02ffee,
    // 0x080208fb, 0xf908f903, 0x0af8f8ed, 0x05fffaec,
    // 0x14faf40f, 0xf803eb04, 0x0df92c3a, 0x1efe0614,
    // 0x08e9f7fd, 0xe90501f3, 0xf6050d03, 0xf1fefe09,
    // 0x0deafefc, 0x0607fffc, 0xfdfce2f3, 0x00fbe800,
    // 0xfbea04ff, 0x0c03f105, 0xeafd01e9, 0xf6fce3ee,
    // 0x02fc10f9, 0x000ff000, 0xfaee06fc, 0xf7f5ddfe,
    // 0x10ebf601, 0xf701e304, 0xf7f7191d, 0x15f7e809,
    // 0x02e301f1, 0xf302f7f2, 0xf5f1e5f2, 0xebede2e6,
    // 0x080009fb, 0x0f0bfe04, 0xf7f4f2e6, 0xf9f6dde7,
    // 0xfa1d1c05, 0x0102fdfa, 0xf3ef0ef8, 0xf7f5f1f3,
    // 0x02181106, 0x030af809, 0x00ef18fa, 0xfbf4ea03,
    // 0x06dbf704, 0xf2f8f9fb, 0xf8f3fffe, 0x10f8e9f4,
    // 0x04e80df6, 0xff0af2f1, 0xf1ecd7e2, 0xfef4e7dc,
    // 0x0a0d0cfd, 0x0208fb06, 0xeff014eb, 0xf3f1e9f2,
    // 0x041203ff, 0xff040502, 0xefef0b03, 0x02eeeffd,
    // 0x08050706, 0x110b0a08, 0xfaf7150e, 0xf6fdf905,
    // 0x00e20400, 0xed08ecf6, 0xfcefe2f3, 0x07ebf8d6,
    // 0x1df106fa, 0xfc16fe00, 0x00f2eced, 0xfdf7fde0,
    // 0x120609f9, 0xf802fb11, 0xf5fa09fa, 0xf9f4f6f3,
    // 0x03f8fcfe, 0x0f0108ff, 0xf0040409, 0xfafc09fa,
    // 0x11030702, 0x06060d0f, 0xfafe060f, 0xf8ff0e05,
};
