#pragma once

#include <stdint.h>

static uint32_t l2_weight_data[] = {
    0x0b0cea0e, 0xfbeff5ff, 0x0009fd0e, 0x05f7b20f,
    0x0003ff0d, 0x0e0339f3, 0xfaf4db08, 0x01f70728,
    0xfe001002, 0x05032802, 0xf3fbf71c, 0xfe01d8fb,
    0xfa0702fb, 0x03fdfafa, 0x0100f61a, 0xfa05f0ea,
    0xf3f11918, 0x08ff03f4, 0xfd04f7f1, 0x07f90821,
    0xf50910e4, 0xefea4332, 0xf4fbf315, 0xfff9fb03,
    0x0602efea, 0xfdfcd2ed, 0x04f7dade, 0xf7f9e508,
    0x0a010beb, 0xfc052a13, 0xf90beee6, 0xfbfa0e24,
    0x09fbfc10, 0x080dc0d8, 0x0002e614, 0x0006ee14,
    0xf10cebee, 0xfbf90619, 0x0cfaec0a, 0x00f7f9e3,
    0xfc06f815, 0x0411c1e1, 0xfbf7e0fc, 0x050110f9,
    0x05071c19, 0xf002d8f1, 0x07f6f8ff, 0x02ff2e20,
    0x00fae8ec, 0x03fa11f2, 0x06fde20b, 0x0af611e2,
    0xfef60f11, 0x01fddefb, 0x06f91713, 0xf5ffb1ef,
    0x0212e6da, 0xf5f5ba0d, 0x0df9f005, 0x0c0216e9,
    0x08061dd5, 0xfa0f02e9, 0xfd1b1bfa, 0xf7f8f8e9,
    0xf901f5df, 0x0a19d420, 0x02ebebc6, 0x0c00ca01,
    0xf7f61230, 0xfe0311ee, 0xf101e3e8, 0xf7f5fc0c,
    0x07fdf519, 0x00fd07ee, 0x15e9eb13, 0xf60c033f,
    0xf705f90e, 0xffff1523, 0xf9ffe3f8, 0xfe12dffb,
    0xfcfb08d8, 0xfcfad8e2, 0x02fefe16, 0xfb01dbd7,
    0x03fff00d, 0x0a170b17, 0xfc03fa13, 0x02fefcdb,
    0xfefffa12, 0xfff502cd, 0x0a0ebb00, 0xff040bfd,
    0xf91c19d8, 0xf8f5260d, 0x0d0bc9f9, 0xff052c01,
    0x0803d0f1, 0xfe1100f3, 0x0af21ced, 0x00fefbf9,
    0xff01e910, 0xfdf71308, 0xfdf721e5, 0xeefcb6fc,
    0xfffb28f8, 0x01fe05e0, 0x0201f7ed, 0x09f5c4f4,
    0xf9ffec03, 0xfffdf0ec, 0xf5effdee, 0xfb080f2b,
    0xfd0d1108, 0x05f921fa, 0xfc03e6c3, 0xf7f7e81d,
    0x0707f4f2, 0x0d12cddf, 0x1309dff6, 0xf9f7e5f9,
    0xff151dec, 0x0efff538, 0xfb05b111, 0xfbedd4e9,
    0x08060cfd, 0x09f722ff, 0xfeecdde8, 0xf90bdade,
    0x12fb0d04, 0xf4f51e06, 0x1bf9d117, 0x06f901df,
    0x0308d2f9, 0x000df9ef, 0x01fec1e0, 0xf2edf511,
    0xf7f8021b, 0xfdf500fd, 0xfd03f901, 0x06f619fb,
    0x04ffc8c6, 0x0d0efa1a, 0x050dd200, 0x0efbd003,
    0x0110d0ca, 0x050027fb, 0x07fcf810, 0xfa0d1910,
    0x050405f8, 0x0c070919, 0xf0f706f5, 0x09fe0f09,
    0x05fb03f5, 0x20fd02fd, 0x06f9fefa, 0xf105f3f9,
    0xeff7fcfd, 0xe2fcf900, 0xedf7f905, 0x0d050207,
    0xe30404fe, 0xf0fafbfb, 0x07fbfff2, 0xf803050e,
    0xfbff0a05, 0x0e0300ff, 0x1300fafe, 0xf00a02fe,
    0xf6000002, 0x01fdfbff, 0xf1ff05fc, 0xf40407fc,
    0xe8fbf7fe, 0xea080a10, 0xeefef700, 0xfef80305,
    0x0906f405, 0xef05f3ff, 0x01fd13f6, 0x0d060b00,
    0x09f9fb07, 0x0708fc09, 0xebfff608, 0x11fffe07,
    0x21fffdfd, 0xf50505fb, 0x0afe0908, 0x1104f8ff,
    0xf3ff040b, 0xfb03fc09, 0x03fd0d03, 0x0d0002f6,
    0xd90305f4, 0xf905fc05, 0xf5f8fbfb, 0xe6080200,
    0xfc020001, 0xf903ec06, 0xfa130000, 0xfc04fafa,
    0xe7f5fa00, 0x08f4ff02, 0x0007f603, 0x0a01f9f2,
    0xfd1400fa, 0xf305ec03, 0x1cfefafb, 0xe1fe03f6,
    0xea05f4f9, 0xfe03fc08, 0x1e041100, 0x110607fc,
    0x0afd04fa, 0xf20bf9fd, 0xf2f40af8, 0xf4f3f60b,
    0xddfefb05, 0x1004f411, 0xf704fefe, 0x1bfe06fb,
    0xfaf9feff, 0xff070a03, 0xf41005fc, 0xeefffc05,
    0xfb060400, 0xec07faf5, 0xe3effa06, 0xda0afdf9,
    0x14fbf4fa, 0xf30604f3, 0xfafbfc0a, 0xfef7f6ff,
    0xf100f403, 0x0cf5f109, 0x0c020d07, 0xf102020b,
    0x0206fd03, 0xeefa09fc, 0xfe02fe00, 0x140c08fc,
    0xfcfb02f3, 0xf803f9fb, 0xfd02fefd, 0x05140402,
    0xf301fdfa, 0xeaf3fb02, 0x0706f801, 0xedf6f709,
    0xdcfc0301, 0xfafa0400, 0x0afafefb, 0xfcfb05f2,
    0xea021301, 0xf9ff06f4, 0x05fe03ff, 0xfd0600fe,
    0x1ef4030a, 0xfbff000d, 0xe40ffd01, 0xf1f3030c,
    0xf401fa0a, 0x0cf7020b, 0x110203ff, 0xf5010b07,
    0x0ff80ef2, 0xf2edfefe, 0xfd06fbfd, 0x080bf10a,
    0x0bf9f6fe, 0xf202fa03, 0x030e040c, 0x03040b02,
    0x060603fc, 0xfb07060c, 0xeafe030a, 0x07ff0f05,
    0xfe040207, 0xf30408f9, 0xe8f90403, 0xf60702f8,
    0xfdff08fa, 0xedef040a, 0x0e0a04fc, 0x04fdfb09,
    0x050b0008, 0xeb01fffd, 0xf0fefe03, 0x06f20bf5,
    0x06f7fefd, 0xfb080902, 0xf9f8f20f, 0x0201f40e,
    0x020107fc, 0x0409f3f4, 0x0606fc09, 0x01fe0bfb,
    0x020002f9, 0xf0fffbfe, 0xf0fd01fb, 0x000c0000,
    0xea0df402, 0xf7fa04fe, 0x0b1118fc, 0xf207f306,
    0xeafa1af8, 0xf2fd1704, 0xff03e901, 0xf2f82302,
    0xf0efeb05, 0xf3031305, 0x07050801, 0xe300f008,
    0x0af9f301, 0x05f01608, 0xf607f109, 0xebfef401,
    0x1801f3fc, 0xed0c1a04, 0x0a000efc, 0x120607fc,
    0xf1fe0eff, 0x210000fa, 0xe9f9d001, 0x0908f2fa,
    0xf8ff0a06, 0xf3f6fa08, 0xfefe10f7, 0x13fa25ff,
    0xe801f0f5, 0xfd09f605, 0xe8fefcf7, 0xfafc0802,
    0x06f7fff9, 0xf3f6fb00, 0xf9fff0f9, 0xedfb16f3,
    0xf902150d, 0x00fb19f6, 0x0204fdfb, 0x02f917fd,
    0x0df6130a, 0xdf00f8f8, 0x130132f3, 0x0102fe01,
    0x04fd1004, 0xfcf604fc, 0xf3020d03, 0xe4f5e911,
    0xe9fa2800, 0xfd081207, 0x0d04e504, 0x14081dff,
    0xf5e1f9fb, 0xfbfcddf6, 0x060f20f8, 0xe4fcfb07,
    0xe5f90a02, 0xee02d4f6, 0xf5030bfa, 0xebf62eff,
    0xf8060dfc, 0xe2fe0207, 0xfbf1d800, 0xf804fdf8,
    0xf803edfd, 0xf1fdf1f8, 0x060ef8f7, 0x03f81df7,
    0x08f80bfc, 0xfbfd1102, 0x06fa2bf7, 0xf2fc1cf6,
    0x03fa1709, 0x09021700, 0x1902e4fb, 0xfe1ac8f9,
    0xe7f31c07, 0x0af523fc, 0xf7f9f401, 0xf0f9f1ff,
    0x00fe2b02, 0xf6010203, 0xf507e105, 0xf5050afe,
    0xf6f3fffe, 0xebfff7f7, 0x1205f901, 0x0c091ffd,
    0x02fefc00, 0xfd11f2fc, 0xe007cbfa, 0x08032e0b,
    0xef0cf2ff, 0xeaf623f8, 0xf7fdfbfe, 0x07fa05f6,
    0xf1fd0cfe, 0xfbffef09, 0xff063204, 0x08ff00fe,
    0xeb07e1fb, 0x100d0205, 0x12fdfbf6, 0xfdf61100,
    0x03080106, 0x1608fb04, 0x0d09e803, 0xf4ee12fe,
    0xf0fd1f03, 0xe9020efd, 0xf4fd2afe, 0x0dfbec00,
    0x09020bf5, 0x0a05e2fd, 0x0106d404, 0x2508f904,
    0xf402ce11, 0xf40714ef, 0xdb0cfa08, 0x05ff1601,
    0xf700ecf5, 0x06fcd808, 0xdffebe02, 0xfc0cf605,
    0x0e122710, 0x19051afd, 0xfc041e02, 0xf406cc03,
    0x0b01220b, 0x0c0b2103, 0xf0ff1b03, 0x0709f204,
    0xf709e5ff, 0xf306f5fb, 0xdbf3e908, 0x07f41406,
    0xf7fd0409, 0xfff1f0fe, 0xf9fd0805, 0x08fb1bff,
    0xe504ed00, 0xf2fe00f4, 0xf9fde006, 0xebf2e9f6,
    0xe5ff01f3, 0xf508ecf9, 0xfd020407, 0x0000060a,
    0xfd000d01, 0xf4f7f4ff, 0x0507f6fa, 0xfb04f701,
    0x1a0cf50b, 0x1203f40c, 0xecfb0813, 0xfcf7fa05,
    0xf0ff00f3, 0xfd0205f3, 0x0803fdf7, 0x05020908,
    0xf20204fc, 0xdef4fbf5, 0x01fef506, 0x02fcfff9,
    0xeaf804ec, 0xfff60410, 0x0a0c040d, 0xe9fa06fd,
    0xff0009f9, 0x1afcfbf2, 0x0afb0602, 0x0dfc01fc,
    0xf601ff0b, 0x03fd07f3, 0x03fd0206, 0x0005fffb,
    0xf7fa03e7, 0xe90107f3, 0xfa020009, 0x0800fd19,
    0x0cfc0702, 0x050aef00, 0xe2f00ff2, 0xf4ffff10,
    0x04fffef5, 0x0908fffa, 0xe8120708, 0x0d0efcf0,
    0xf906f5fe, 0xe907fafc, 0xfdfff711, 0xe9f5f9f3,
    0x050309f3, 0xf8fafc03, 0x01f6fef7, 0xf504f8f3,
    0xf8f509f1, 0x01070702, 0xf4fb0ff7, 0x000f01eb,
    0xef0afefb, 0x110301f6, 0x13fc0bf9, 0xed0805f7,
    0x05fefcfd, 0xf5fb00f4, 0x00fe07ff, 0xee04fbed,
    0xecfffdf7, 0x051009ff, 0x1d030505, 0xf1090904,
    0x0908f206, 0xeefaf3fd, 0xf402fb07, 0xe8fefced,
    0xda07fcf0, 0xef050def, 0xe2fbfbfd, 0x1104030c,
    0xf609f5ed, 0xfffefef7, 0xeefffefd, 0xfd0afaf8,
    0x0a010e0a, 0xf109fa09, 0xe7fe0edf, 0xe7ff0aef,
    0x0702130f, 0xe8f803f0, 0x09fb0507, 0xe304f5f8,
    0xf9f70303, 0x09f20dfe, 0x080bfef3, 0xfafdf7f5,
    0xfd09ff08, 0x030307f7, 0xfafffafe, 0x15f30415,
    0xe50505e5, 0xf502fff4, 0xfcfe0505, 0x16fff9fb,
    0xe50402fc, 0x0800f70c, 0xf3fdfffa, 0xf0010709,
    0xf6000100, 0x0507f507, 0xfd03f801, 0xf9eff702,
    0x030cf715, 0xe5f4ffde, 0x1b01fffc, 0x0101fef2,
    0x1efff60c, 0xf4fe0af4, 0xe5f806f0, 0xde0f05ed,
    0xf5f4fcfe, 0x0108f60f, 0x0b0100fc, 0x040203ff,
    0x25f9fbff, 0xec050106, 0xea070507, 0xed020ff0,
    0xe7fd00f0, 0xfbfd06e6, 0xeaf90703, 0xf714f300,
    0xf2ff000f, 0xfb0104e4, 0x05fd08fb, 0x0fff0403,
    0x060219f1, 0xfa04fc10, 0x0dfd04f3, 0x020506f4,
    0xdcfd02ff, 0xfe011003, 0x03fbf8f8, 0x01fe00f7,
    0xfa0106f5, 0x01ff0602, 0xf5feffea, 0xfc020802,
    0x050a07f8, 0x0203fc08, 0xf30508eb, 0xdd04fe0b,
    0xe6fff7f3, 0xf90bfbe9, 0x04020701, 0xebfc0502,
    0xfc0206f8, 0xff02ff02, 0x0af7040a, 0xfdfffa05,
    0x080b0a0a, 0xf4f0fa03, 0x1bf4090c, 0xddebf907,
    0xf6120d05, 0x0d0d0602, 0xfee9fdfe, 0x0ff703fb,
    0xf608f714, 0x040c06ff, 0x04f8faf3, 0xfae4fdf7,
    0x02ef0205, 0xfa02fdf2, 0x0d1404fe, 0xe70b07fa,
    0xedeaf2f5, 0x1506fd06, 0xf702faff, 0x19e3fa03,
    0x0a2a04ff, 0x1bd700f9, 0xdbfa0ff8, 0xdfedf803,
    0xf5110afe, 0x031bf501, 0x010eeceb, 0xef00fb0b,
    0xfffe000e, 0x0104fd02, 0xea1f0905, 0x091efc07,
    0x022b0a09, 0xd6330503, 0xdffaffee, 0x0714fd08,
    0xf8fe14f5, 0x0fe90403, 0x18ecfb16, 0xfa10fa05,
    0x0001ffe4, 0xf11eff01, 0xf414e9fa, 0xfdfbfffd,
    0x2b00fe01, 0x0107fc0b, 0xf00d07fc, 0x07f30114,
    0xfe19fbfb, 0xeef6fafe, 0xfef4f905, 0x03f504f1,
    0xfcfafc0b, 0xf5020100, 0x05140aee, 0x03000f03,
    0xed25090e, 0xd8dbf4f8, 0xf403f6fb, 0x121106eb,
    0x0503fffa, 0xf80eff0a, 0x1ff0f714, 0x0602f3fe,
    0x02040814, 0x05fd0213, 0xfcfae4f8, 0xf3f4f0f8,
    0x06f9110c, 0x16f70710, 0xfafef7fe, 0x0707ff0a,
    0x0bf0090c, 0x140104f7, 0xe4fb02f4, 0x1df1020c,
    0x11ff00f8, 0x13fbf0e9, 0xe2fc0200, 0x0411fb0a,
    0xf12407e8, 0xf50cfcfc, 0x00fffc03, 0xf2140af5,
    0xe804faee, 0x22011024, 0xee0b00f7, 0x081a08f5,
    0x0303fe04, 0xe9f608f4, 0xf61b0105, 0x09070e00,
    0xf211fbfb, 0x20f10f02, 0xe4230210, 0x0c100f00,
    0xfb11fd03, 0xfdfe0108, 0x05010302, 0x0beb010d,
    0x1afe120a, 0x08faee00, 0xfc03fbfc, 0xf6100bf3,
    0x22e1f806, 0xe6fc09f9, 0xf7f2050f, 0xfe15f8fe,
    0x1803f5ff, 0xe808050b, 0x080bf7fe, 0x19e9ea19,
    0x1101fb10, 0xfafcfaf5, 0xe0eb0bee, 0xf0db00ff,
    0xedebfa0f, 0xf92a01f7, 0xfb0b0406, 0xf503fff0,
    0xf30eff0b, 0x0ff90d07, 0xfbe5fb0f, 0xebf104f3,
    0x0df60006, 0xfa070aed, 0xe20f02ed, 0xd1f7f6fe,
    0x08f2010c, 0xeff5fdf9, 0xdefc0807, 0x0b0709ff,
    0xdafd010f, 0xfb130504, 0x02fbfded, 0xf8f2f9f4,
    0x0f06fe02, 0x01ecfffa, 0xe800fbfd, 0xf8fe05f8,
    0xf315ff01, 0xe904fdfc, 0xfbecf90c, 0xf814fcf5,
    0xf709fe09, 0xf90801fd, 0x01fc02ff, 0xfef1fa02,
    0x08f0fbf8, 0x06f10006, 0xf5da0c0f, 0x031df1f9,
    0xee0f0106, 0x032801f0, 0xfdc8fcf0, 0x000c141a,
    0xf816e5f4, 0xffdcf801, 0x05dbf3f8, 0xf7f728f9,
    0x18f3dc05, 0xf508f4f3, 0x0727fa1b, 0x0ce6e7ff,
    0x09d2d6fe, 0xf1e31d01, 0xf052f611, 0xfcedf802,
    0x0302fd03, 0x0b29fbfe, 0x08c2f700, 0xed410501,
    0xf717ec02, 0xfefafdff, 0x05eff6fb, 0xfd07d5ee,
    0x1ccbd7ef, 0x06e1e9f4, 0xf7fe0e0f, 0xfcff1c04,
    0x00c20efe, 0x04d307f1, 0x0dd5d7f8, 0xf5b101f4,
    0xe816f70d, 0x1df8fdf3, 0x052afc04, 0x0819e8fc,
    0xf03cf20a, 0x10d8f6df, 0x0411f0f6, 0xffccfa11,
    0x20ddf8ec, 0x03fef607, 0x12f309fb, 0x0a2fecf1,
    0x05e4f2ef, 0xf1e32619, 0x09d908de, 0xf904f3fb,
    0x0010fb0b, 0x02f3ecf9, 0x15f00efb, 0xf014f303,
    0x15e1d7e9, 0x03f9e0fa, 0xfec2f5f8, 0xfa1febed,
    0x0eeac6ed, 0xfcbbf5ff, 0x05fb0807, 0x05c5fbfb,
    0xde114b24, 0xfe0c0f07, 0xef00100b, 0xf8fd060b,
    0x0cfae6f5, 0xf822f3ea, 0x0900f7fc, 0xf6f3260c,
    0xf719c6ee, 0x010209f0, 0x0be9ebfc, 0x1004ebf1,
    0xfe2b040a, 0xe93f1022, 0x030de4e9, 0x1ed6d9dc,
    0xe503020a, 0x17d601f5, 0x10e9eedf, 0x0100ffe9,
    0x0adff104, 0xf8c706f5, 0xf907f1ff, 0x000ef607,
    0x011ee800, 0x12fef400, 0xff02fffd, 0xe70d1a0e,
    0x05f70008, 0x05e3e2ff, 0xf9d008f6, 0x10f9e6f5,
    0x02c2e3f9, 0x14eb03fb, 0x0fd0f6f3, 0xf400fe0c,
    0x17d1e2d7, 0xfc23f01b, 0xf4f11f1a, 0x011be902,
    0xfe08fffe, 0x0e0dd8f1, 0xea1010fb, 0xf5f3e9f0,
    0xdf190312, 0x17ccc2ee, 0x02bff5f4, 0x05e0e0f9,
    0x0cb9f4df, 0xfa43242a, 0xfd120a02, 0xf92df50f,
    0xed32f6ff, 0xe9471f12, 0xeff8150b, 0xf9d6fcf9,
    0x19d6e109, 0x031ccee8, 0xf6dd0601, 0xf4370d12,
    0xfb570ef5, 0x010ce6df, 0x12f809f5, 0x0904fbec,
    0xffdff0e2, 0xf52cf9fa, 0x06e51af6, 0x16fcfcee,
    0x0bebdcf4, 0xfc19e303, 0xfe12f5ff, 0xfee60008,
    0xeb09fcf4, 0x110dcceb, 0x0adbe800, 0x0135e9fa,
    0x09f301fc, 0x0b08f7ff, 0x01fef301, 0x01e3f7fd,
    0xf70bfb0a, 0x03f0d8ed, 0xffdf08fd, 0x03d9ebfb,
    0x0a03faf3, 0x0aeef20a, 0xfe05f1fe, 0xfffe150c,
    0x0b14e907, 0xf7ffeaee, 0xfd0cfae1, 0xf4f7fcd6,
    0x02fa0715, 0x0b0ffe05, 0xfd02f409, 0xfb0f1000,
    0x10eee8fe, 0xf909f5d6, 0x01e71909, 0x0411f1f8,
    0x01f50efd, 0x07ef370b, 0x09f5fdfa, 0x0104faee,
    0xfae7fbf4, 0xfe0910d5, 0xfb020013, 0xfa060a1d,
    0x0fef0020, 0x02fb09fd, 0x0d07fe37, 0x08ee0f43,
    0xfd03030f, 0x081fe7c6, 0xf5f2d9e7, 0x10ea1120,
    0xf8f70efb, 0xfa03f401, 0x00ee06dc, 0x080014f1,
    0x0803f814, 0xf8f60dfe, 0xfafcf7f4, 0x07060f0d,
    0xf110f309, 0xfcfff307, 0x0004f7e4, 0x03f6fd1c,
    0xfd08fce6, 0x0602aec8, 0xf7ee3629, 0xfb01fb05,
    0xfe09f505, 0x0005f0ed, 0x010410fe, 0xf4f6f106,
    0x04fbfeef, 0xf6f32509, 0xfff50013, 0x0705f6f6,
    0x0d09edfe, 0xe8efe3e7, 0x0d0609f9, 0xfc10ebdd,
    0x05f808d7, 0x0af50513, 0xfc1813e0, 0x1705132f,
    0x091128fb, 0xf8f9f81a, 0x0818c1c1, 0xfeff0930,
    0x0404d5ea, 0x0b17b3dc, 0x03e8262a, 0x0707da0f,
    0xfef9ed1b, 0xf51204ed, 0xf5f8e7d4, 0x08090fed,
    0xfdfbecfc, 0xfbf635f6, 0x07f53015, 0x060cf817,
    0x02fc10f0, 0xf1e45649, 0x07050400, 0x0402f905,
    0x0eff21f3, 0x06f2f8fb, 0x010ee4ee, 0x0ffc09ff,
    0x030dde01, 0xf613fbd7, 0x08e7fae3, 0xfff62e04,
    0x04fbfdfd, 0x0befe4e8, 0xf60ac7d9, 0x0109f120,
    0x100ae7ec, 0x050df036, 0xfc0abc0c, 0xf90f0bfe,
    0x070af912, 0x0de818fb, 0xfdf22109, 0xfb05f70a,
    0x0311a7ea, 0x00fdf410, 0x03d73905, 0x07f3ea1b,
    0xfe03f3dc, 0xf7ea0d2b, 0x05f500c8, 0xfe0b04f7,
    0x08f7effd, 0x07f9ec18, 0x0bf508fb, 0xff13e906,
    0x0cf8edde, 0xfbf900ef, 0x050100f7, 0xfaef02f4,
    0x0602d321, 0x1302c7f1, 0xf21ecdd1, 0xf9fef0f8,
    0x0409f8f5, 0xfd1db5ef, 0xec07ed00, 0x01edf103,
    0x110d1004, 0x08e72610, 0x06f91700, 0xfdf9f90e,
    0x0f0b18de, 0xf7fe1907, 0xf8f4e90d, 0x0116fbbf,
    0xfe07d2f9, 0x1209d2f9, 0xfb13d2e2, 0xf8e12b19,
    0xf0f80108, 0xf2e9140c, 0xfbee08e6, 0xf5e7f6f8,
    0x0afae2f7, 0xfe070e21, 0x05f2e700, 0x0a1cc7f3,
    0x08fcdbea, 0x0c0fb8fb, 0x010304f4, 0x09f821ee,
    0xfd070b24, 0xff02fc12, 0xfc0af600, 0xf6ffeffd,
    0x06050d01, 0xfb080a02, 0xe90908f5, 0x090800f1,
    0xf4effe03, 0xe7f90702, 0x17001203, 0xf704fe04,
    0xf6fe0dfe, 0xf40001fb, 0xfffef6fa, 0xf7f20604,
    0x1400fa0e, 0x0003ffee, 0x0706fc03, 0x0e05f612,
    0x01070602, 0x00fc0500, 0xe30311ed, 0x18fb0e03,
    0xfdfef5fc, 0x19f70405, 0x02ebfe0b, 0x0002ee0c,
    0xecf90a00, 0xe5fe05f7, 0xeffe0401, 0x03f20308,
    0xe0110502, 0x0502fd03, 0x200f060d, 0xe512f304,
    0x02f8fafd, 0x07fbf5fd, 0xf010eef6, 0x02f90b03,
    0x15f7f9fe, 0xdf050efe, 0xf601f6fa, 0xfd00f607,
    0xed07280b, 0xff0206fe, 0xeef904f6, 0xf60205f9,
    0x0a0801ff, 0xef11f0fa, 0xf4080aff, 0xfefc180c,
    0x0105ff08, 0xfe070ff3, 0x0afe04ff, 0x06fbee05,
    0xf90702fb, 0xef0ff3fc, 0xedfdfe06, 0x0ef609ff,
    0xf1f9030b, 0xeff909ed, 0x070703f6, 0xdefaf904,
    0x2909eef4, 0x12f403fe, 0xeffef706, 0x0a05f907,
    0xf4020d05, 0xf3fdf909, 0xf203e9f9, 0xfa060801,
    0x00f8fff7, 0xfd000806, 0xd2fbf4f9, 0xf70c09fb,
    0xf3fbf604, 0x1a0c0605, 0x06000707, 0xeb0108ff,
    0x0c040c00, 0xfafe03fc, 0x06fbfe01, 0x15fef8f4,
    0x0bf8f511, 0xf7fc0af9, 0x17050700, 0x15fafb03,
    0x1df8ebf2, 0x000b0ff6, 0xfb0201fe, 0x04080208,
    0x0603e700, 0xe700fe05, 0x0c04fc01, 0x0b010202,
    0xf900f10e, 0xeefaf901, 0xe3fef502, 0x13f80503,
    0xdf020908, 0x0301f5fc, 0xffffeafe, 0x0bfcea05,
    0xfafb08ed, 0x0d070105, 0xfe0a01f4, 0xfa010e0a,
    0x250210fd, 0xd9fffc01, 0xff0300f9, 0xe70bf801,
    0xe20b04ff, 0x2bfdebfe, 0xe6fef9f6, 0x11fd0100,
    0x18000805, 0x0ff1fbff, 0xe707fd05, 0x1bfdf200,
    0xf100e5fe, 0x090104f9, 0xfff7fcfc, 0x16f8f7fe,
    0x27fe0a07, 0xf8f3f4ff, 0x0fff0417, 0x06f80e05,
    0x0a080e0a, 0x02020406, 0x100919fe, 0xfb0a0e03,
    0xd7fbf502, 0x13070005, 0xf004f702, 0x24fbf706,
    0x1206f104, 0xf1000a09, 0xe1fdf7ff, 0x0601f602,
    0x02fc00fd, 0xf9f909fc, 0x19f8f300, 0x081000f4,
    0x0afefffa, 0xfd0afc04, 0x16f816ff, 0xfcfdf904,
    0x06010006, 0xdf051901, 0xed0a05ff, 0x00f60103,
    0xfdf608f6, 0xfc000609, 0x10050105, 0x0d09ee07,
    0x0f02ff08, 0xfb07e706, 0x1203fc04, 0x01fd0508,
    0x0202fbf1, 0xe910edfc, 0x16060b03, 0xf9f9eaf7,
    0x360102fb, 0x2d0b0bfe, 0x03fc0c03, 0x2006f006,
    0x23fce9f7, 0x0d020efd, 0x0902fc00, 0xff000309,
    0xe602f703, 0x07fee0ff, 0x15fefaf1, 0x1ef6ecff,
    0xff02f9fb, 0xf80d0701, 0xf60df804, 0x1b0b19f7,
    0x0a06e8fc, 0x0cfafe07, 0xfd08ed01, 0xd9050fff,
    0xf0fb1005, 0xef05fa0a, 0x24ffebff, 0xfd012705,
    0xdde51cfb, 0xfa00fef6, 0x1304edfc, 0x1900120e,
    0xf5071604, 0xd5ee0bfe, 0x0520e8fb, 0x03fa05fc,
    0xf2f40afc, 0x0c041008, 0xe504fdfa, 0xf0f403fe,
    0xf0ff120b, 0xfe01f804, 0x1604d6f9, 0x11fffcfc,
    0xfe110d04, 0x120303f9, 0xfe0404ff, 0xcff1f2ff,
    0xe806f106, 0xff10fd10, 0x14f3fc09, 0xfffef003,
    0x06050b10, 0xef060c0a, 0xfef1f202, 0x05ffe001,
    0x150ff7fd, 0xddf81007, 0x230df204, 0x11fa0c07,
    0xfef71df4, 0x0405e505, 0xdefffcf0, 0xfb021e00,
    0xe7f22309, 0x1803f4ff, 0x1d00fb18, 0x05ffe7fb,
    0x040de905, 0x16fc0cfe, 0x110bfc02, 0xf8032407,
    0xf30205fb, 0x0df7f804, 0xe8fc0e02, 0xef0ef904,
    0xf2f9f201, 0x17000dfd, 0xf7f51bfc, 0xf9fd08fb,
    0x02ffff00, 0x11faf101, 0xd516ef05, 0x01f826ff,
    0xe3f30a00, 0xf9150cf5, 0xe6ff1302, 0xf10204f7,
    0xf2fe1b01, 0x0d07f2f2, 0x090afb07, 0x1dfeff06,
    0xe2fbfa05, 0x19000304, 0x2f01e8f2, 0x1cf20502,
    0xebfeeef8, 0x1b09d9fa, 0x0201defc, 0xf9f221ff,
    0x08040cfb, 0xde070507, 0x090009ff, 0xfd03f0fe,
    0xf806120b, 0x1209efff, 0x06fbed01, 0x1bfbdafa,
    0x14fdf002, 0xc7fafa11, 0xbaf50e06, 0x1b09f90a,
    0x170c0805, 0xdffdef0b, 0x00f8fc06, 0x1f0be1f9,
    0x020403f5, 0x090fed02, 0xf50a011a, 0x1805f0f4,
    0x09fcfcf2, 0x000fef02, 0xe9f432ff, 0xfa05f501,
    0xdaf4fff9, 0xdf0af5fb, 0xf204f7f5, 0x15030800,
    0xfcfb1bf3, 0x1304f00c, 0xf6fdfb11, 0x18020902,
    0xfcfefd05, 0x1205fdef, 0x0b00f2fa, 0xed0305f6,
    0xd21aee00, 0xe201f6f5, 0xfffa00ff, 0x13fa04f1,
    0x1602ff04, 0xfdfce7f8, 0xf0f508fd, 0x0bfb05ff,
    0x20010814, 0x0210f9fe, 0xf0fafd0e, 0x12fbf8fb,
    0xe6f5f5fa, 0x09fc1afe, 0x0f0d04f4, 0xf900f603,
    0xfffe040e, 0xeb04f9ec, 0x0b07f813, 0x07f4031e,
    0xf7090f0a, 0xeef2fb15, 0xf1fff1fb, 0xfffcfefd,
    0xfc01f812, 0x020102fc, 0x1e050206, 0x090af2fc,
    0xebfafe19, 0xf8f8fd06, 0x10fff7f9, 0xedfc18d9,
    0xf6f80ce9, 0xe8f806f9, 0x0108030c, 0x04fffd07,
    0xfcebfc12, 0x17f4010e, 0xf601fdfc, 0xfd06042b,
    0xe502fdfa, 0x05020306, 0xd3fc0606, 0xfffb01fe,
    0x030afa14, 0xfefa13fa, 0x09fd0611, 0xd3f9fad8,
    0x0bfa0005, 0xfb030602, 0x1afbfef8, 0xf30a0ae3,
    0xef031bff, 0xf90103fa, 0x01f7060f, 0x1204fb01,
    0xfb02fcf8, 0x1c040904, 0xfdf30dfc, 0x04fcf1f7,
    0x030008f3, 0xd4010be4, 0xf9040519, 0xdcfb09fd,
    0xce0b1afb, 0xfaf312ff, 0x22f8f722, 0xe8fe080f,
    0xf4fbebd9, 0xf30a01fd, 0xf0ef0302, 0xdeef0adf,
    0x0602ee12, 0xe1fbf8fd, 0x02f9fc0d, 0x00fe0201,
    0x0e080620, 0xf2fef201, 0xeb08f3e0, 0x0c090c03,
    0x14080231, 0xe606eee7, 0xfa1004f9, 0xfdfc1805,
    0xee03f4f7, 0xe9010102, 0x07f61203, 0xe0f9f702,
    0x120603fd, 0x00fd0bfe, 0xfaf8edff, 0xfafffffb,
    0x06fb1108, 0x1c0d11f4, 0x06fe0001, 0x1110ff1e,
    0xea0108cf, 0xfcfe04ea, 0xfe02fa0e, 0x210a05fd,
    0xeff8fffb, 0x09f903f4, 0xfafa0708, 0x04fcfe0f,
    0x15ff17fb, 0x0806f1ff, 0xf101f9e7, 0x0dfcf50e,
    0x0d130102, 0xf4f6f7e5, 0x1500fb0c, 0x09fdf00b,
    0x1b06f90a, 0xe9f8fef7, 0xe9fbf6f4, 0xce0cf9e9,
    0x07fd0efc, 0x0604eddb, 0xf711000a, 0x0700ec09,
    0x1502f70b, 0xf1fcf3ee, 0x0a02f304, 0xe6fa01e7,
    0xc603fbec, 0xfe0200f9, 0x020cf0f5, 0x01f3f6f2,
    0xd70603fc, 0x0afe0e0e, 0x0f0b0c02, 0x1701fd16,
    0x0efa16fc, 0xec07f207, 0xfef20bf8, 0x11f80f04,
    0xe103fcf1, 0xfb050404, 0xdd00f3f9, 0x04ef04eb,
    0xf2fc07d6, 0x06070508, 0xeff903ef, 0x010fe9fe,
    0xf20afc06, 0x1909f61d, 0xdc07f3eb, 0xf4090c20,
    0x0007ed06, 0xe61513e9, 0xf9fdfef8, 0xeafb03fc,
    0x07fe07fc, 0x08fe0405, 0x07f9f10e, 0xfc0108f5,
    0x13040908, 0x02fbfc0d, 0x23ed0100, 0xf2e70bff,
    0xf802011d, 0x07fc0705, 0x0611fb04, 0x05f5fffd,
    0xf1fd00e9, 0x08062319, 0x0bf9f8e8, 0x1f0cf00a,
    0x1600fb0b, 0xebefedf9, 0xf8050602, 0x01ed060b,
    0xfbfafafd, 0xf8fdfb07, 0xfbf8f7f7, 0xfdf904ee,
    0x26d80af8, 0x08effbea, 0xe10c00fd, 0xcf00fbed,
    0xe4fe0502, 0x11f60502, 0xf30f0408, 0xfe03fe0e,
    0x14d6ecf2, 0x2708060d, 0xf3e4040c, 0x1b05fbf9,
    0xf91303ff, 0xd5e90307, 0xedfafffd, 0x10180afe,
    0x0c1b020e, 0xf6f1f504, 0xf9e9f8f3, 0x0cf4fb04,
    0x001d00fb, 0xf42b0a29, 0xddc9eae4, 0x01f900f9,
    0x2eff02f2, 0xe2ff0109, 0xe82110f2, 0x4114000e,
    0xffeb030e, 0xeefae6e0, 0xe2f4e3ec, 0x07f60ee6,
    0x0c0aff00, 0x0ff0fa13, 0x12000c0d, 0x0029050c,
    0x00ea05f9, 0xd809f3f8, 0xf01bfe01, 0xfffd1110,
    0x16e30104, 0x1609080f, 0x293a0c1e, 0xe9f109f5,
    0x1ef60308, 0x14320e1b, 0x01e6f0d8, 0xe7fb0419,
    0x011bfa0d, 0x0efa1108, 0xeafaf3fd, 0xfef703fc,
    0x0b190105, 0x0ad3eee6, 0xf5e9e6ec, 0x21e9f5fe,
    0x1a0afef0, 0xf8cff9db, 0xed0403fa, 0xfd000408,
    0xe92303fc, 0xe9050322, 0x0c0bfe04, 0x11fe0502,
    0xfdf4000a, 0x14fc0106, 0x16da00ff, 0xf2ecfee7,
    0xfb02ff04, 0x17f206f9, 0x0e331b02, 0x09050e03,
    0xf11a0d10, 0xfcdc0100, 0xff210405, 0x091104fe,
    0x120b0c0c, 0xededf203, 0xfce00bec, 0x07faf7fd,
    0x0f22fe13, 0x110306ea, 0x04eaeae0, 0xd0fe0417,
    0x29e7fd16, 0xe0edf0de, 0x04e3ecf4, 0xfb180f16,
    0xdd15fe17, 0xee190716, 0x0be8fee6, 0x0a18090a,
    0x2301fd07, 0xf4f4f6ea, 0xf2ecebf3, 0xea02fafb,
    0x02f1f715, 0xe72c212b, 0x102b0f11, 0xdefc00f2,
    0x0b0f0d04, 0x0f0c080e, 0x06fbfb01, 0xe6edf2fc,
    0xfffcfff9, 0xe8c8e5e3, 0xf0f203f6, 0xe7fcfe07,
    0xf1fcf8f1, 0xdae9f1e9, 0xf9210422, 0x0eebf7f7,
    0x0127031a, 0x011c0b10, 0x07351109, 0xfee3f3ed,
    0x0c1a0102, 0x06f301f3, 0xf40f0806, 0x12f7f3f3,
    0xe70f0c25, 0xfdfe0101, 0xf6ff0405, 0x0b1e14f9,
    0xe21d05fc, 0xf2330f18, 0xfffd04f9, 0x0ce6f8f6,
    0x0ef7f00c, 0xf915ff0f, 0xfaf00bfb, 0x0311e70d,
    0xf31820fe, 0xf6171a0f, 0x0efdf1ee, 0xf61610fd,
    0xfc1800fa, 0x03f6efe7, 0x17ddf3ed, 0xf30b0a1c,
    0x0de619ee, 0x06e6feff, 0x0408110b, 0x0bed0ae7,
    0x0fcee3e6, 0xf8f8220b, 0xfd191904, 0x13f603f8,
    0xf902ff00, 0xfa03fbf3, 0xffee15ef, 0xeee6280d,
    0xff14db08, 0xee14d5fb, 0x09ed01df, 0x06f4e60c,
    0x13c0d7f4, 0x13fcfcf5, 0x091c1d01, 0x020d2500,
    0xfdf3071d, 0x02d20801, 0xffe1fbff, 0xf207fbfb,
    0xf9eff615, 0x0de10ee3, 0x1a1e1b1d, 0xf9e6ea08,
    0xf414fffd, 0x10f7e8f0, 0xfaf808e1, 0x0fc3cb05,
    0xfdfcfbd6, 0x07fffe01, 0xfae5f80c, 0xfb17f0e8,
    0xfdd8e20f, 0x05f917fe, 0x19eafeee, 0xffe904f9,
    0xfd161901, 0xf2f700f9, 0xe6ecf2eb, 0x01101504,
    0xfbd4e0fa, 0x17efd50d, 0x11051bf7, 0xff07e0fc,
    0xf0dacffd, 0x001305f5, 0x05142af5, 0x0cf10af7,
    0xfa11192e, 0x03090609, 0xff0022ff, 0x03f2eb12,
    0x03f514e7, 0x042000eb, 0x150f1104, 0xee321807,
    0xf8e4d3e7, 0x00ea0aea, 0x27ecebf6, 0x061bf7ee,
    0xfbf6fa0e, 0xea21f2ff, 0xfcdff0fc, 0x05ebfbe7,
    0xfafcf2ff, 0x01fff4f8, 0x10def3d7, 0x0e0505ff,
    0x0dc5fcf6, 0x01eb0704, 0xedf3f307, 0xe6ff06f8,
    0xee2a1c03, 0xfaf6fcef, 0x04fefffa, 0xfe2b26fb,
    0xe6fce211, 0x18f0f9f8, 0x04ddf8f7, 0xfbf40af0,
    0x09cfe5f5, 0xfcf50510, 0x19daebe4, 0xfaf22916,
    0xf91410e7, 0xf815fb13, 0xf5f2e617, 0x041d12e9,
    0xf8100aff, 0x0411ebf2, 0xf80d22f4, 0xeffee7fe,
    0xf002f308, 0x14cad3f3, 0x12eb00e5, 0x1de0e2f7,
    0x13cfece1, 0xe5fef31d, 0x1d261af6, 0xf8e80102,
    0xf3f2011b, 0xf0101716, 0xf5211808, 0x04cfc413,
    0x12cdb8fd, 0xeef0cadf, 0x0b013503, 0xffe8eb0c,
    0xf220ee09, 0xf202faf8, 0xea0e01f7, 0xf206fafe,
    0x04e2e1e6, 0x0310ef0f, 0x08f605f1, 0xfcee09f3,
    0x23e6d001, 0x0014fdf4, 0x0bedd715, 0xfce7fe03,
    0xdcead3fc, 0x0e1303cf, 0x1804ee03, 0xf30dfe0a,
    0x03eef0fc, 0x12fc03f4, 0x0600d406, 0xf308f601,
    0xfd0f0afd, 0xfabdd3f7, 0xffd2dbf4, 0xf9d2db0d,
    0xfe00fe05, 0xff2007de, 0xf21c0cfd, 0x1109010e,
    0x0e021708, 0xfbf720e4, 0x0a010c1d, 0xfee718d1,
    0xf1151d3e, 0x0e11250a, 0x0b09cfd6, 0xfd1313f5,
    0x01f53e20, 0x0716d405, 0x0400280c, 0xf509dddd,
    0x06f602eb, 0xeef0471b, 0xfd084122, 0x09074d22,
    0x01f90310, 0xf800f321, 0xf9fafa13, 0x060eebf7,
    0xf5081114, 0x0006eae7, 0x0100e1f2, 0x0bf9ffef,
    0x000df5d6, 0x0704edf5, 0xf9fa191b, 0xfd062728,
    0x0301413b, 0x0002021b, 0xf80236e9, 0x05ed34ee,
    0x080ffb03, 0xeaef36f0, 0x0afcb117, 0x06fdd5e8,
    0x0effbb15, 0x05fecaf8, 0x0310fa0f, 0xf6083ffb,
    0xf4f7dfc7, 0xfb11b4f4, 0x0018212e, 0xfe050004,
    0xf40e00af, 0xfbf0bc02, 0xfafc0f05, 0xee08f823,
    0xf5001508, 0xfcfc0421, 0xfb02371e, 0x06f91509,
    0xf9140003, 0xf7e80dc2, 0x05091908, 0x13f9d6e0,
    0xfafa24f6, 0xf605e0ee, 0x0b032e21, 0x0504fb07,
    0x16fc2d14, 0x050126e9, 0x1302f1c6, 0x04051e13,
    0xfc0d2212, 0xf80bc3e8, 0xfdee19f4, 0x0406c40d,
    0x0b0bdc03, 0x060515fc, 0xfaf8eadb, 0x0801031e,
    0xfd03df1d, 0xf6f44a0c, 0x02190920, 0x0701d6f9,
    0x110acfc8, 0x01051b3e, 0xfefdec2c, 0x01fd0dfd,
    0x060a201d, 0x0eebc700, 0x0304fcea, 0xf803401c,
    0x0bfbd2c6, 0x020ebde6, 0xf5f2e0c7, 0xfdfb0917,
    0xfc01fef4, 0x110c351d, 0x15fabeba, 0x0004fe33,
    0x0403d7f1, 0x0f0adde8, 0xf6080f01, 0xf708f8dc,
    0xfef91e2b, 0xfd050e08, 0xf20226fa, 0xff05ebf9,
    0x0210c005, 0x01fa07ed, 0xfc00331c, 0x02f3b21f,
    0x0100e6c7, 0x01fa0b1c, 0x09f6d808, 0x08091613,
    0xf410fe1c, 0x01fdd769, 0xf808403b, 0x0f0ad5f7,
    0xf4f9fef2, 0x1115e127, 0x08fae0db, 0xfd1dff07,
    0x07f8db07, 0x0a05b9e8, 0x140cb1f9, 0x0509dd01,
    0x0efff6f9, 0x0310c1e7, 0xfe04e2fb, 0x04ff40f7,
    0x0b141726, 0xfef8cfe8, 0xf9ff0523, 0xf006de00,
    0x1714f30a, 0xf80a2b3d, 0x0712c725, 0x03f605e5,
    0x0206aafc, 0x0613b0d3, 0x0de9e8c9, 0xf9fa4942,
    0xfdf7f500, 0x100c1d1b, 0x06fa0407, 0x01fa3bfa,
    0xfefccff5, 0xfa0217cc, 0x05fb4645, 0x02f913f5,
    0x090af1cc, 0xfeffc2fe, 0x000504fe, 0xff0b453a,
    0x03f53023, 0x03f84c2d, 0xf5fdfef8, 0x0c06f308,
    0x03ff0ff7, 0x26f7fe07, 0xe0ff0504, 0xf4f20c0b,
    0x0efb00f9, 0x02000d0e, 0xf5f20502, 0xda04f701,
    0x00fd07f9, 0x03fefd04, 0x1f08fb03, 0xfafb1102,
    0xf405f400, 0x0005f9f5, 0x2200f70c, 0xf204fff7,
    0xf3000702, 0x1201fd08, 0xfe050bf2, 0x0009fffe,
    0xf600f905, 0xf7f9010d, 0x070402f1, 0x20fcfefb,
    0xf704fc0b, 0xd8fe07fe, 0xf8040ef4, 0x060cfff0,
    0xf5f90a06, 0x07020dfa, 0x0d00fe04, 0xe3040b01,
    0xfd010d00, 0x00ff0404, 0xf20fe304, 0x0a0307f2,
    0x0cf80c06, 0xf3ff0e04, 0x080800f4, 0xd704ee01,
    0xf1fc1dfe, 0x0200f9ff, 0x10fdfdfe, 0x0efdfbf5,
    0xf802f505, 0x2103f4fa, 0xf40404fe, 0xe9ff02f2,
    0x04020507, 0xfafd05f4, 0xdefe16f6, 0x1b05e602,
    0x00070c01, 0x03fb00fa, 0xf5f80fff, 0x0cf5fcf7,
    0xe4fcf9fa, 0xeaffff0d, 0x020005ff, 0xf6f8fbf8,
    0x0f03ee06, 0x1102fe09, 0x0f08fd01, 0xf605f0f9,
    0x24f80c0a, 0x0a0a00fb, 0x01fdfd00, 0x0101fef9,
    0x1efe0af5, 0xf5fa0bfc, 0xed0bfb0d, 0x0afd0904,
    0xfdf801fe, 0xf7030303, 0x24ff02fc, 0xf50609f6,
    0xd1010302, 0xf8041501, 0x03070b01, 0xfafffb04,
    0x0c0f0c07, 0xcc020d03, 0xf507fcfd, 0x1501fcee,
    0x07f000f6, 0xf00813f1, 0x02050302, 0x0afa06f9,
    0x19f600f9, 0xf2f60604, 0xdd0402f9, 0x1a0804f7,
    0xeefffb12, 0x0f01ff00, 0xe9fc05fb, 0x01021df6,
    0x03f60b06, 0x190afa02, 0x19f9ef0e, 0x2905e708,
    0x1efe0cec, 0x1007fcf7, 0x12090a06, 0xf90600fc,
    0xfcfe11ff, 0xdcfdf8f5, 0xe1fcf704, 0xc7fc0201,
    0xeaf71605, 0xf800f109, 0x11fffb06, 0x02ffff09,
    0x0cfe0003, 0x02070305, 0x1af9fa0a, 0xcefafcfd,
    0xe706eb07, 0x18f40503, 0x0afe0302, 0x0d07e40b,
    0x04fdfd04, 0xfb02fd02, 0xec051402, 0x02f50e0b,
    0xd6fe13fa, 0x0afffd00, 0xe5f61202, 0xe40206fc,
    0xc203f0fd, 0x2006fef9, 0xe908e6fb, 0x0406f902,
    0x23fdeff0, 0xf70023ef, 0xfe03f3fb, 0x1708f6f6,
    0xf1070205, 0x09081002, 0xfefcf8ff, 0xee0c02f9,
    0x07fcf807, 0xf6fb03ff, 0xfc05ff0b, 0x050ffb02,
    0xfa07f300, 0xfb060ff9, 0xf10000fd, 0xfb07fdfa,
    0x0af2fbff, 0xfceafbff, 0xfb01e404, 0x00fbea03,
    0x1dfa1fff, 0xfb010d09, 0x1602fefb, 0x10011bff,
    0xf9fe010b, 0xf40621fd, 0x0507e606, 0xfef21510,
    0xf200fc00, 0x100e05fa, 0x07020406, 0xf5fd07fc,
    0x03f80108, 0x02f90a02, 0xff03fdf5, 0xf106e9fd,
    0x07f4ea0f, 0xf316d908, 0x14f00ff8, 0x23fa12f3,
    0xe402fafb, 0x0a10fbf0, 0xf90efdf6, 0x28ff15f5,
    0x18f7f5fc, 0xfa01fef8, 0x0cfef314, 0x01fffb08,
    0xebfe1309, 0x0c03010a, 0x0e0af6fe, 0xff11f3ff,
    0xe2fcfefa, 0x1a06f8fc, 0xf20fd409, 0x0ef80d01,
    0xfcfff2fc, 0xe6032507, 0xf802ee05, 0x0701fffc,
    0xecfef8fe, 0xedfef4fb, 0xff040f07, 0xfa0ffe00,
    0x17fffd07, 0x1ef70909, 0xed02fbfc, 0x0e0c02ff,
    0xf50ae5f2, 0x04f80911, 0xf0fb080e, 0x0b002101,
    0x03fbf007, 0xfff910fd, 0x04ff0e0b, 0x11fb0502,
    0xfdfee9fd, 0xfb02faff, 0x05021c0b, 0x07021508,
    0x1407f6fa, 0xe9040bfa, 0x0e09020c, 0x09090bf5,
    0xeff7fd0a, 0x06fc1e02, 0x0d05d8f7, 0xf808f3f8,
    0xe8fe15fc, 0xfd13ed04, 0x03000001, 0x01ecff01,
    0x0606e606, 0x120606fe, 0xf8020cfc, 0x08fc150f,
    0xe60ee909, 0xf1010bff, 0xf7f70c00, 0xf6091a02,
    0xf6f8eeff, 0x0001fe06, 0xf8fecefc, 0x060bf902,
    0x01fcf7ff, 0xe701eff1, 0xf7fceaf8, 0xebf20300,
    0xe703f305, 0xf20e0108, 0x0bf420fb, 0xf20efef7,
    0x05040e03, 0x10f11607, 0x1bf702f7, 0xfdf9ed08,
    0xec0220f6, 0xf009eb07, 0xf9f9f300, 0xf0ebff08,
    0x0406eb01, 0x1c01eb02, 0x0400e709, 0x13112806,
    0xf7fa13f4, 0x1603230b, 0x06fb0205, 0xfaf41dfe,
    0xf1faef05, 0xd9fafdfb, 0x1d07cdfd, 0x02f6090b,
    0x12f811f4, 0xdd051101, 0xdbfc0702, 0x1516e40d,
    0x09ebfe01, 0xf7f61d00, 0x0b01f001, 0x1706fbfc,
    0xec00f902, 0xfe08e9fb, 0xfe1705ff, 0x15f50006,
    0xeb10f1fd, 0xf404ec09, 0xf3031403, 0xfa12ca09,
    0xfcf920f5, 0xebfef9fa, 0x09fcdff0, 0x0507ddfe,
    0xf00604f8, 0xf405db03, 0xf1f901fc, 0x110de7fe,
    0xf4f81603, 0x03f6f701, 0x12041701, 0x1305f904,
    0xe706f100, 0xef042607, 0xfd0900ff, 0x0d00fefd,
    0x0ffe0300, 0x0ff52108, 0xe4000301, 0xfe02f4fe,
    0x0b02fb0b, 0x12070401, 0x02fffafc, 0x0909ffe5,
    0xee0108e6, 0x040afafb, 0x0df3f611, 0xfa020af5,
    0x0705fb02, 0xe30009ee, 0xfc00f515, 0x140d0410,
    0xf9fa0904, 0xf7f8fef6, 0xfa02f30b, 0x0ee4fef2,
    0x0305fef7, 0xf00d0106, 0x08fefef6, 0x0e0b0210,
    0xd504f2fe, 0xeffaf70e, 0xfffbffdd, 0x13fefbeb,
    0xef0b17fc, 0xfbf60b00, 0x090bfe1b, 0xf802f2fd,
    0xfe07f103, 0x09fb100f, 0x0103eee3, 0xf2f5fa05,
    0xfc01fdfe, 0x140000ff, 0xdff3fae0, 0xfd0eef18,
    0x0501f301, 0x0efb140c, 0x050909f8, 0xdef6fcdf,
    0x09050406, 0xfb0203fd, 0x01f803e8, 0xfb06fcf5,
    0xe5070c09, 0x06ebf9fa, 0x04f20f09, 0xfd050101,
    0xfb0aec02, 0x09100aff, 0xf8fbf9ec, 0x0b060aec,
    0xf4f40107, 0xdf0100e1, 0xfcfd020c, 0xee07fafa,
    0xd10202f1, 0xf6f21adc, 0xff00ee10, 0x0d050808,
    0xf2030bd6, 0xee0200ff, 0xe90af705, 0xdced07d8,
    0x18fcee2c, 0xef0300f1, 0xf5f9f4f1, 0xf2fd10f7,
    0x031300f1, 0x07f6f909, 0xfff9fbfb, 0x24090c14,
    0xffffeb12, 0xf1fc02f8, 0xf80df1f6, 0x1714f513,
    0xfafdeffa, 0xeff6fe07, 0x0a070dfd, 0xdc0101e6,
    0x05f80406, 0xfb0208f5, 0xe9faf601, 0x0403f2e2,
    0x030e0305, 0x07f90307, 0x0502ff05, 0xf9fde403,
    0xf10c00d8, 0x01f30000, 0xee0002f5, 0xfb12001f,
    0xf1fb0005, 0x160000ea, 0x06fb0208, 0x0f0fe510,
    0x11030104, 0xfc0bf7fb, 0xfafa01e9, 0x0b0afe0d,
    0x1704e805, 0xee0602fa, 0x1df9e71e, 0xec05f603,
    0x200f000a, 0xf30714f5, 0xe0010b0f, 0xc7fcfee8,
    0x15fa000f, 0xffff00f0, 0x1bf0f904, 0x0d07f808,
    0x0c14fd09, 0xebfafae5, 0x0b00f404, 0xe6fc10df,
    0xd1ff0cc6, 0xfa100108, 0xff00f3ed, 0xd5fbfbe1,
    0xf511ffdc, 0x0502f328, 0x04070afa, 0x0afcf31c,
    0xfa06030d, 0xdcf5ff14, 0xdc0506e7, 0x050af808,
    0xd5fbf0e3, 0x060a01fa, 0xe00205c5, 0xf10406fb,
    0xec0315e5, 0x1b0e0715, 0x0bfbf4f6, 0xfe14fc0c,
    0xfafaf902, 0x1204ff04, 0xde0e02e2, 0xe3f009ff,
    0xea050405, 0xdefc0b03, 0x03ec0200, 0xee0705f4,
    0x03faf5ff, 0x0e07f706, 0xf603fe13, 0xf404fcf3,
    0x07090114, 0xfa15030a, 0xfdf2f9f5, 0xf80bfa04,
    0xfef70916, 0xe70effff, 0x0cf90b08, 0xeaf4fd02,
    0xf2f0fafd, 0x0625070f, 0xf3d7fae9, 0x1d080300,
    0x12050314, 0xfbc9fbf6, 0x10fe1102, 0xe819fc07,
    0x0917fe0c, 0xf4f90a06, 0x050108f9, 0x00f5f6f7,
    0x1ddbf1f7, 0x0700f5f4, 0xfdfc080a, 0xf4f8f9fb,
    0x060d0afa, 0x0a210a08, 0x11130b06, 0xf1ecf900,
    0xffeafbf4, 0x0c100908, 0xd8e2f4fc, 0x1ae8fc01,
    0x18011102, 0xcdd1f9fc, 0xfa060205, 0xfeee0b07,
    0x03260f1b, 0xf304f8fc, 0xe700faff, 0xe9d7f30c,
    0xf90fff09, 0x123b3b1b, 0xd6cef3da, 0xff03f9fd,
    0x142b0bf0, 0xefebf80c, 0xfe0afc02, 0x30f2f303,
    0xfeddf8fa, 0xf8e1f2f3, 0xf9fd00f4, 0xf0f3fbf8,
    0xfffb0dfd, 0x0e19161b, 0x051b130a, 0xf2180b14,
    0xfbe8ff04, 0xe7fdfdf6, 0x090a0bf8, 0xfc03fc02,
    0xfae90001, 0x07dff800, 0x0f2b0121, 0x0618fffa,
    0x0a030a01, 0xfa1f2718, 0xf7d5f2ed, 0xf30afe1c,
    0x0ef30808, 0xf11cf908, 0xf9fdfafa, 0xeae2f801,
    0x02f211fc, 0xfed5eee4, 0x06dbf0ea, 0xfff5fa05,
    0xfd120fec, 0x10d1f9f4, 0xe0eff907, 0xeef20b09,
    0x031011f3, 0x0306131b, 0x30f60cfb, 0xfee6000a,
    0x1127fa0a, 0xfb1b131b, 0x0cdd0f0c, 0x08f900f1,
    0x00ff0301, 0xfcf4fe03, 0x05161f06, 0xfc020900,
    0x0001f713, 0xf4fdfdfb, 0x151b0a17, 0x030707ec,
    0x00dbf9f4, 0x05ea01e9, 0xf5e1fdfd, 0xfa0cf8fb,
    0x18201712, 0xfeef11ff, 0x19e6e2f7, 0xf6150c22,
    0x0dddecf5, 0x04eef0e9, 0xf7e8fbff, 0x02050b15,
    0xff111207, 0xf407120e, 0xf9d8f8ea, 0x061e03fa,
    0x0bf2fdfc, 0xf90f05f4, 0xfeddf602, 0x022002f8,
    0x0414f623, 0x04191a29, 0x1d242022, 0xd4f2e8e5,
    0xe1f9fe0e, 0x123a1b13, 0xf6250401, 0xfad4efed,
    0xe602f3fa, 0xf9effaeb, 0x05eef9e6, 0xe906f5f9,
    0xf9040ff8, 0xffeff1ec, 0xfe41121c, 0xefdefd09,
    0x072d1b26, 0x12200d15, 0x1511f70f, 0xefcdf6df,
    0xfefb1101, 0x071efcfb, 0x00f5f6fb, 0x09e700ef,
    0xfe240e0f, 0x01ee111c, 0x0f0e0100, 0x14030101,
    0xf208fd10, 0x31491d0b, 0xfb0608fe, 0x12dbe5f3,
    0x07fcfc06, 0x08120302, 0xf41302f3, 0xf810080c,
    0xfd0c27fb, 0xf306f507, 0x1a2b0fdc, 0xfedcf601,
    0x0407fa0b, 0x01f5ff02, 0xfd0b0109, 0xf4faeafa,
    0xeffc37ec, 0xfdd9f7f7, 0xf1091610, 0xfd0819df,
    0x0110e806, 0x02011813, 0x00e61f11, 0x07f40ae4,
    0xfcf90707, 0xf2e3130e, 0x0a1611f8, 0xf0dc1f18,
    0x040cf409, 0x061004ff, 0x02fad011, 0xeff3ee05,
    0x11fe0212, 0x131706c3, 0xfc0b26fa, 0xf8031813,
    0x1d35e7e5, 0xf1020102, 0xf8f9e410, 0x0b2cfed2,
    0x0604f7f8, 0x08f30d0f, 0x1efc0908, 0x02ef1a01,
    0xf8f71b0b, 0x042219ce, 0x00090aff, 0x17e1d5fd,
    0xfbea04f6, 0xfe010503, 0xf2eef71f, 0x1402f8f0,
    0xfcece402, 0xfb092c0a, 0x092613dc, 0x01f322f5,
    0xfbfa1119, 0xed1202ed, 0x07eff6ed, 0xff18122c,
    0x06fbdce9, 0x1cefdbf3, 0x0b2915f8, 0xf707db10,
    0x02df05e6, 0xef100702, 0x020e2114, 0x133505d7,
    0xdfe2ec0d, 0x07f6fd11, 0xffef20f4, 0xf7d8d525,
    0xfc03fe16, 0x1515f8ee, 0x0c020609, 0xee00ee0b,
    0xfcec23f0, 0x06e10bef, 0x17f011e8, 0xea1130f9,
    0xee0b10fe, 0xfcecbf0e, 0xee070813, 0xf8e2f0ef,
    0x0dfccbdf, 0xfaf9f6f2, 0xe7eeda11, 0x1bf9d90e,
    0x0df1ff03, 0x0c0ffbcf, 0xf504e3fe, 0x0103dc16,
    0xf5f51415, 0xf7fd09fa, 0x00fe01fe, 0xedfc2604,
    0xf0f9d51f, 0x0ce1ecff, 0x0711ecf1, 0xf3db090a,
    0x100ff1e0, 0xf8fa0411, 0x18130fce, 0x05022f0e,
    0x0c220806, 0xfb092207, 0xfffbe30b, 0xfa130814,
    0xf812fc0c, 0x2301f2fd, 0x040c30fb, 0xf71209ee,
    0xf617e7fd, 0x100de4cb, 0x1002faf2, 0x31ead7c0,
    0x15100bb3, 0xf1cdd50a, 0x0a0828fd, 0xe9c4f211,
    0x001b0608, 0x02e21718, 0xfd251203, 0x0cf0cdf6,
    0x0cd3cffd, 0xf8e5230f, 0xfb0c0722, 0xf7d9e634,
    0xeff20433, 0x021513fd, 0x05f6fcfe, 0xf4061208,
    0xf5d3f1ec, 0x011f0614, 0xfbf80d02, 0xeed406ff,
    0x2cf5ccf1, 0xf8121ce8, 0x19f6cafd, 0xf701011e,
    0xf3fcf706, 0xfd0618f4, 0x10fafcf0, 0xf0e81120,
    0x02fbedfe, 0xf3072cf6, 0x17eae508, 0xf3290a09,
    0x0a0c1d0b, 0xf1e9ede7, 0x04fcf8fe, 0x08ebd802,
    0x08fdfdf7, 0xf20214f9, 0x01091902, 0x03f90502,
    0xfc060e02, 0xfcd60bed, 0xfdff181a, 0x04f7f108,
    0xf911110d, 0x01000c08, 0xfcf8f5ee, 0x04fedd0d,
    0xf7161009, 0x03e91e11, 0x101aaced, 0x0aec07f4,
    0xf704e60c, 0xf72aee10, 0x0116f008, 0x10fb610c,
    0x01f4e7f2, 0xfff90e0f, 0xfb09fdfd, 0x0206d1f8,
    0xf00a27f3, 0x0700dd01, 0xfcf618f4, 0xf3fdd7f4,
    0x06fbb6f4, 0xf6e0bed6, 0x141fdd0f, 0xfb132203,
    0x001d1407, 0x05042b14, 0x00e61903, 0xfaee53f0,
    0xf6fabbf0, 0xebfe2ef9, 0xf31ccef6, 0x05fb1707,
    0x13f8fae7, 0xe901fff0, 0x0019eb09, 0xfcff1efe,
    0x0fdccfe4, 0x04fd0b06, 0x0713d001, 0x020305fb,
    0x0ce21af3, 0x02ffc20d, 0xfb0aedf8, 0x12062ffb,
    0x02f72901, 0xfc07fbf6, 0x0111f3fa, 0x02fbf807,
    0xed1204f4, 0x04e4f80b, 0x0606d9f2, 0x07ec0905,
    0xfdf81c03, 0xfb0cf0eb, 0x09fbd9fb, 0x0bf8170f,
    0x01de2cdf, 0xf3ff2e02, 0x05e202f8, 0x04f9def8,
    0x000208f9, 0x10f1dd0c, 0xfa12e7f5, 0x0210dcf1,
    0x0cfa07f6, 0x05fa2010, 0xf2e4d700, 0x0905fb05,
    0x0a0100fb, 0x060ae8e9, 0xfef903fd, 0xebf7d7fd,
    0x05e6d1d1, 0xea08c9f6, 0xec220f11, 0x021ad918,
    0x0510c7e8, 0x010bdc07, 0x05ea3f07, 0xfc07170f,
    0xf906fcff, 0x05f4e3f3, 0xfdddbae9, 0x0b0be8f3,
    0xff03fffa, 0xfafd0300, 0xfad6dbf8, 0x0209fc04,
    0xfff63106, 0x09020303, 0xfdf82101, 0xf8ecdade,
    0xfcfc2a14, 0xef09f604, 0xfb01150e, 0x0203dc11,
    0x00f9d60f, 0x16f4efe2, 0xf104e002, 0x000ee5f1,
    0xfaf22101, 0xef04f0fd, 0xf908fa16, 0x05fc180e,
    0xfe131706, 0xf718090c, 0xf7103718, 0x0ceee004,
    0x0e01fbfc, 0xf203d0fd, 0xfe15d3f1, 0x04fc02fe,
    0x08012712, 0xfaee050e, 0x0afa1504, 0x0406cf03,
    0x00e4fc0f, 0x02ededee, 0x11efc9f7, 0xf2f8f4fb,
    0x121e3a0f, 0xfb09cff9, 0xf613f60a, 0xf6fdd1fb,
    0xff02fb12, 0xf711d5f8, 0x09110ffc, 0xf81ab200,
    0xfde61308, 0x02e7f9f5, 0xffe7c9ea, 0x0c29df1e,
    0xfd0cf6f6, 0x0100dcfb, 0x0707f20a, 0x0612f903,
    0x02f1200b, 0xe5f32b05, 0x060b060d, 0x03fbe8fb,
    0x0109f419, 0x00e415ef, 0xfd08f100, 0xfe26e304,
    0x1308f20d, 0x0204f80d, 0xf5f6fe0a, 0x05fef9f5,
    0x02090407, 0x0700f806, 0xf0ff0a00, 0xf9fdf10d,
    0x1409fd05, 0x0d080907, 0xfc080e02, 0xf202f9fe,
    0x0afcffff, 0xfe05f5fd, 0x05070301, 0xf6fa0a0b,
    0x0e01fffc, 0xfafbfd05, 0xf70afaf3, 0x060803f6,
    0x07ff02ff, 0xfd00fcf8, 0x01f609f0, 0x2a02f5fc,
    0xde0504fe, 0xe4fb06fe, 0x040c0400, 0x0dfcfafe,
    0xf20e0902, 0xf6050601, 0xf0f31207, 0xf90bff04,
    0xf0f7fb06, 0x15fffa11, 0xf70d0000, 0xe90001fa,
    0xee02ff07, 0x1afbfc02, 0x1913fa04, 0x0511fdfb,
    0x05f80b00, 0xff0407fe, 0x1f13fcff, 0xf1fd04f8,
    0xeffaf9fd, 0x03ff02fa, 0x12fafc07, 0x04010005,
    0x030a0dfe, 0x0df9fd05, 0x070606fd, 0xe7080e03,
    0xf608fcf9, 0xe0050dfc, 0x060705f1, 0x03f7fdf9,
    0xf90308f7, 0xfff9fb03, 0x07f2fef6, 0x09f7f000,
    0xedef08f0, 0x030a0201, 0x0dfef802, 0x08f7f70f,
    0xf6fcf407, 0x010df701, 0xf309feff, 0xeef50106,
    0x040214fa, 0x060f0001, 0x1bfa000b, 0x0a0a00fd,
    0x07fdfcfd, 0x10f304fd, 0x1806fa0d, 0x2007fbf4,
    0xf602fe08, 0x00fc0413, 0x32f8f9fd, 0xf90701fb,
    0xd8040403, 0xf7f0f904, 0x07fbfbff, 0xf0fef305,
    0x0708fff9, 0xf0060e06, 0x00fb0006, 0x0d05fc05,
    0x1e010a04, 0x14020201, 0x02000401, 0xfb0a0007,
    0x020ef0fd, 0x1e060a04, 0xf1020cfe, 0xf10504f3,
    0xf6f2fd01, 0x1705f5ff, 0xfefd11fe, 0xeeff10fa,
    0xfffb06f5, 0xfdfb0402, 0xfb0af501, 0x2000f603,
    0x0c02efff, 0xf212f6f2, 0x1c0af9f7, 0xea00f9fd,
    0xf107ff06, 0x02060e00, 0x00f50a09, 0xee070b05,
    0xfcfa09ff, 0xf2fff0fa, 0x0df6ff00, 0xf1f8f0fb,
    0x1101f9fc, 0xfbf5f504, 0xf2070209, 0xf5fc010b,
    0x0402ff03, 0x20fcfd01, 0x0503fef9, 0xfa01fa04,
    0x0a02f90b, 0x07fbf402, 0x02010afe, 0xef02f7f8,
    0xf7060307, 0xe5f701f9, 0xf4fb0400, 0xe7fc07f2,
    0x04f6f902, 0x15fcfd11, 0xfd02f808, 0xff04fefd,
    0x0606fb10, 0x1b060800, 0x1afcf803, 0x0e01fd06,
    0x02fffafa, 0x090103f6, 0xf6fafc01, 0xef02fa08,
    0xed020604, 0xfbffff06, 0xebf8100e, 0xf302030b,
    0x06fbfcfe, 0xf5f70503, 0xfa0709fb, 0x0a020afc,
    0xfd03020b, 0xde09f902, 0xecfdfc01, 0xff03ebff,
    0x21fe02fe, 0x0afa2104, 0xed030bfa, 0x0cf9f007,
    0x0302fe00, 0x19024102, 0xf803ee08, 0x1602f5fc,
    0xef08f303, 0xe0fae4f8, 0x0209ff07, 0x07fa310b,
    0xe9f5f9f9, 0xf400f601, 0xfb020403, 0xfcfefe04,
    0x1102e000, 0xfb0ff706, 0x1c011b04, 0x05fbfdfd,
    0xfe0ef800, 0xeaf700f8, 0xf5020308, 0x19fff708,
    0xeef6f310, 0xec06060b, 0xf2070303, 0x0efdf80f,
    0xec09f9fe, 0xfe05f103, 0xfbfbf406, 0xf8060100,
    0xe9010cf7, 0x0902f1fe, 0xf900f6f8, 0x10fddc03,
    0xf804eb06, 0xfc0a21fb, 0x0d01eb04, 0xff030100,
    0xf80a16fc, 0xf3f6cd05, 0xf500f403, 0x08faec06,
    0x1e11f407, 0x1cf8f102, 0x00fd10f9, 0x1904fd01,
    0x19fe0cfe, 0xe101050a, 0xf3fb0bfd, 0xfcfd0e0a,
    0x06fc0005, 0x0f01020b, 0x1510fd06, 0x14f4fef8,
    0xf40df901, 0xfc03faf5, 0xf2031908, 0xf60308f7,
    0xee0c05fc, 0x0402340d, 0x010bf3fc, 0xea03d704,
    0xe8f9fcff, 0x0b032307, 0xf8f8db06, 0xfbffe200,
    0xe5fa02fb, 0xed0cd8ff, 0x1cf5eefc, 0x0a0606fd,
    0xe7f90a01, 0xfb00dffe, 0x10041706, 0x01050d00,
    0xf30d01f3, 0xf8faf606, 0x14fbfcfa, 0x1e0700ff,
    0x180c1f02, 0xf3000802, 0xeb05ee0b, 0xf7fbf005,
    0xfd0000fd, 0xedee0a08, 0xf8061507, 0xff010602,
    0x1f001d0a, 0xfbf8e9fc, 0x11fc12ff, 0xf0fef5f9,
    0x0e0301f7, 0x13040af7, 0x07fff305, 0xf1fff9fd,
    0xfc0411fd, 0xe110f108, 0xe7feed04, 0xeb04e209,
    0xed09e804, 0x080ee6f5, 0x0c0ae605, 0x2e012401,
    0xf6ff07ff, 0xf4fffbfc, 0x22fcecfb, 0xfa060505,
    0xf100edfd, 0x09f1040b, 0xf2f8d8fa, 0x03ff0afe,
    0xfafd08f4, 0x00ff2afe, 0x16fa380e, 0xf506e1fe,
    0xfbfffc04, 0x05fb2a08, 0xedf5f9f9, 0x0cefecea,
    0x00011603, 0x0101fcf3, 0x0f0306fb, 0x08fd2101,
    0x070afd01, 0xfdf6ff02, 0xfcf143fb, 0xe90ce3f9,
    0xf70427f9, 0x020e21fb, 0xf304d7fe, 0xf3fced09,
    0xe400fb05, 0xd70bfd04, 0xfef70304, 0xebefea05,
    0x03edf6fd, 0x1bee15fc, 0xfcfb1003, 0xfc01fdf9,
    0x0206fbf9, 0xfd031601, 0x0207fef5, 0x0701e0fc,
    0x02fbf5ff, 0x08041004, 0xea03fd02, 0xef00fe06,
    0x10ff05ff, 0x00ff0209, 0xfafb0c03, 0xf6ec01fb,
    0xf4ff10eb, 0x16fcfffc, 0x0704f4fd, 0xf3e804f7,
    0x10feeffe, 0x0107fafe, 0xf30af602, 0x11020102,
    0xf10afd0c, 0x08fb05fd, 0xed0206fe, 0xfbf5f502,
    0xf9fd00fe, 0xfcf7f8f7, 0xfdf905fe, 0x110efb04,
    0xe3f90df3, 0x0df701f2, 0x0bff020a, 0xf4060402,
    0xf611ff0f, 0x0101fffd, 0x06010706, 0xf60607eb,
    0xf6060cf8, 0x1f050010, 0xee08f10e, 0xf9010301,
    0x020c09fd, 0xf9f801ff, 0xe4f8f9ef, 0x0103fefc,
    0x060601fa, 0xee07f902, 0xf20810fe, 0xebf602ff,
    0x1105fd0f, 0x050402f7, 0x0bf2ef0c, 0xe70306f7,
    0xfc020003, 0x1bf9f90a, 0x01030206, 0xfcfd05f4,
    0xf30bf9fa, 0x0a0c0201, 0xf8fb0408, 0xfb0d0cff,
    0xfc00ecf9, 0xe8fc0ae5, 0xfcf102f6, 0xefff1508,
    0xdc040bf9, 0xe7fb09ec, 0x050bf204, 0x050b00ee,
    0xfc0b19e7, 0xeb0000f7, 0xf906f701, 0xe3fce9ef,
    0x1dfef009, 0xe20b0bf6, 0xfef6f8f7, 0xf0f403f4,
    0xef03f5ed, 0xfdf707fc, 0xf5010108, 0x190af50b,
    0xfcfffef3, 0x01fdf7f0, 0xfefde9fe, 0xf7f0ecf6,
    0x06f70dfb, 0x10fe08fd, 0x03030002, 0xe9fe03f1,
    0x1bf20405, 0x08fefd0c, 0xfdf70bf7, 0x09020d05,
    0xf7fcf4e4, 0x0306fc00, 0x02fa0804, 0xef00fbfb,
    0xf305f9fe, 0xf4030913, 0x1df60719, 0xde04f8f0,
    0xf8f60206, 0x03ffed05, 0x1100fc0e, 0x16fafbff,
    0xf7020604, 0xf4fc02f6, 0xf3fcf8e9, 0xfb07f3fb,
    0x0d07f5fa, 0xc60b0ae2, 0x1406f104, 0xeffcfb07,
    0x0c190dff, 0x04ff1507, 0xfd070315, 0xe7030806,
    0x0df0ff19, 0xf8f80afa, 0x0dfdf905, 0xfbf901f3,
    0x190bf6f1, 0xf50906ff, 0x060706ff, 0x0e0a0d18,
    0xf1faf7fa, 0x000dfe04, 0x0a03f3f9, 0xee0208f6,
    0xf9f0f6f5, 0xf803f406, 0x0700090e, 0x0f040903,
    0xfcf6f815, 0xff000601, 0xeafafb06, 0x010df705,
    0xeb060ef2, 0x1d05f511, 0xeefe11f1, 0x010204fc,
    0xed02fbf5, 0x12feea00, 0xed070605, 0xfb01fff7,
    0xfb030801, 0x07090603, 0xe105fff1, 0xf1fd0a00,
    0xf4fe05f9, 0xe2ef0809, 0x01fdee0c, 0x01fbfe08,
    0xfbfdfafd, 0x0003fbf5, 0xf3fff607, 0xe20513fa,
    0xf7e80aff, 0xe512fd11, 0xf5100702, 0xf3000c0b,
    0xf2ddfa05, 0x06230f02, 0xf600f100, 0xd61c08f3,
    0xfff6fbf6, 0xeb431816, 0x16fdf8ec, 0xfe08ff15,
    0x05fb0503, 0xf9dbeff4, 0x080511f5, 0xdb15090c,
    0xf21a0c03, 0x1103fc07, 0x06060005, 0x03200e01,
    0x0ad3f0e1, 0x1c180fff, 0xd3fcf1fc, 0xdd0ee6fa,
    0xdf11fa01, 0xec071e04, 0xf6f713fb, 0x01d5f8ed,
    0x05f7fbf2, 0x10060d11, 0xcae5ed04, 0xd3ec02fc,
    0x09fb06fb, 0xb7d1f8fa, 0x03ecf207, 0x0f030008,
    0x3cfd161a, 0x070809fa, 0xf81500fd, 0x0fd5e2f7,
    0xd1101408, 0x0a000818, 0x1f0200e0, 0x0002fcfd,
    0xe70f1209, 0x1ffcfe00, 0x050000f3, 0x0ef3011e,
    0x03e50104, 0x01f8f5f6, 0x061700eb, 0xf416fd07,
    0xeb0cfdf9, 0xea01060c, 0xf8f30df7, 0xf1010b13,
    0xe1dbf1f3, 0xda16e900, 0x08ed0cf8, 0x001303fc,
    0xed0402fe, 0xf3d6ec00, 0x15202018, 0x0f0b07f9,
    0x19fd0109, 0xe81e140a, 0xfa19e2ea, 0x24e30d0f,
    0x22e9fefa, 0xeb2c0411, 0xe30b0d19, 0x19f80203,
    0x1de70206, 0x0a09f4ed, 0x00f9f9f4, 0x0310f0f7,
    0xf1210bff, 0x1bdbedee, 0x07ece7fb, 0xe903edf0,
    0x090514fc, 0x0df00113, 0x0efefcff, 0xe0d5f0ff,
    0xf709fa0a, 0xe8220707, 0xfad80100, 0x16f101f6,
    0x03f8fc00, 0x0b0e100d, 0xda0d1516, 0x1f04050b,
    0xdedf04fe, 0xee240b11, 0x03e00508, 0xfff802ff,
    0xf7cff8fd, 0xfef2eae7, 0x0200e9f8, 0xf4170a08,
    0x0d141110, 0x1e24f606, 0x17fd08fe, 0x21ec1006,
    0x18f9f7f7, 0xfb12ece2, 0xf405e9f0, 0xfee2f812,
    0xf608f90a, 0x32e70af7, 0xf7c6eef9, 0xf92d1616,
    0x22eb1117, 0x083105fc, 0xf7eef3f3, 0xec1aee02,
    0x18fe080a, 0x11151b14, 0x061e281c, 0xfa3511fc,
    0xeef60604, 0xeb141218, 0xf0210a02, 0x09f1e4ed,
    0x00160702, 0xf311fefb, 0xf50911fd, 0xb401ee02,
    0xcd2b1411, 0x1518f6fa, 0x16e803f9, 0xf909f704,
    0x0f0f0413, 0x05010d13, 0xf3fb151b, 0xfae8f0ee,
    0x16e90402, 0x10140d01, 0xfbef01fa, 0x0bfc03fa,
    0x03010d0a, 0xafe3f2eb, 0x0ff30c06, 0xfafa0e03,
    0xf609010e, 0xfffd0b0c, 0xf90605f9, 0x1adeedef,
    0x11f603f9, 0x0a07090b, 0x0d17fbf2, 0xfde6f2f5,
    0xea0004fa, 0xddeafbf3, 0x0350f5ec, 0xffd5f216,
    0x04fb09ff, 0xf6f4f50b, 0xf6050416, 0xf211ece5,
    0xede00f05, 0x170ff7e0, 0xfae5eee8, 0xfd00ff07,
    0x060108fb, 0xf8effdf7, 0xf8c30202, 0x010916f4,
    0x00f3ff06, 0xe2b7fb33, 0xfe1a0df1, 0xebb50c2a,
    0x2e11f1df, 0x2a1901e3, 0xf2e5dc11, 0xe8f5d600,
    0xecee11fc, 0x075509e2, 0xf3f51011, 0xf9faf8f8,
    0xfd45d8ed, 0xea1713f1, 0xf5f4e906, 0x0e45d2e8,
    0xf20cfffe, 0x11e71616, 0x0effe3ec, 0xf0f60808,
    0xefb90b1e, 0x093f1ef3, 0xfcf1efee, 0x0f0cdaef,
    0xfeb8f824, 0xfe04fd00, 0xeaf0f209, 0x0005f9f0,
    0xf700f6f3, 0xe7eb2a05, 0xfa3d0bf2, 0x06030916,
    0x0ab8f922, 0x09090c07, 0xff00fdef, 0xfaeff308,
    0xfcefedf2, 0x0f11dcf1, 0xf23100e0, 0x0fdbf304,
    0x01e500f7, 0xf61efbfa, 0xe9eb100d, 0x10310fe6,
    0x02f4dbf6, 0x10e6f006, 0x0ced0308, 0x17e9c2fa,
    0x03cd3c31, 0x0904d1f6, 0x18f3ecfc, 0xf4eefdf0,
    0xd1f3ecfc, 0xfef80400, 0x0ef60001, 0xefcd1620,
    0xfc2e03e9, 0x10e10b22, 0xdeaee427, 0xf3eef710,
    0x0513fcf4, 0x140cfdf9, 0xcce6ec01, 0x1508e6e9,
    0xf82618f8, 0xef5510d8, 0xfb02fcf3, 0xeef3fbe2,
    0x06ee0aed, 0xf4f90cf3, 0xfbfffdfc, 0xfde5f60a,
    0xf4e3d914, 0x05fe0802, 0x07431bf6, 0xdcdcff16,
    0x0b360ac3, 0xf5dfea13, 0x0e450cf1, 0x16061a1e,
    0xf818020b, 0xeeec020b, 0x09fddc00, 0x0ec40419,
    0xf007ef0a, 0x16e7d9ed, 0xf9f41b08, 0x002306fb,
    0xf90e0509, 0x094e1ad0, 0xf7f314e9, 0x1c13fbe4,
    0x054022e9, 0x1fd7ed12, 0x06fb0bf2, 0x0dbbee27,
    0xd3100419, 0x16bffa10, 0x221bf70f, 0x1316f9fa,
    0x0c1bdce2, 0xf5b90615, 0x00f91522, 0x16ebde02,
    0xf5b7d323, 0xfc2507f7, 0xe8ef0eff, 0xf4f3e605,
    0xeef21afa, 0x2a25faf4, 0xf9f50805, 0xf4c2f518,
    0x040ee5db, 0xc7e10109, 0x16fde8e0, 0xf6f00501,
    0xf5ec0608, 0xe3de110a, 0x06f8080b, 0xeab9e614,
    0x00050bf3, 0xe3f80afa, 0x07f3ef04, 0x13550fc7,
    0xfd0e0015, 0x0202f9e8, 0xe5d60221, 0x09f6e6e6,
    0xfc00fe01, 0xfd0ffe0e, 0xf805fbfa, 0x010cf715,
    0xfc0ffff1, 0x07e81b29, 0x00021518, 0xff03eb1e,
    0x03fce5fd, 0xfcf6fdef, 0xf4fce1ec, 0xfb07e505,
    0xfe0107fa, 0xf2ffee0b, 0xfaffe0eb, 0x01fa05fd,
    0xfdfee814, 0x0902bae6, 0x00110bed, 0xfd101a0a,
    0xf4fce4ff, 0x01f5f3f5, 0x050101fc, 0x01f81efd,
    0x070de5f2, 0xf6f71c12, 0xf214eeed, 0xfc02bce8,
    0x02fbd70a, 0x0a0040f7, 0x09fcf5fa, 0xfdf2ecf9,
    0xfafb0f01, 0x0a0eea04, 0x0810e807, 0x0604e419,
    0xfd0be7fa, 0xf90be00e, 0xf6022503, 0x000406fc,
    0xf809f415, 0x03f9d013, 0xfdfb0514, 0xf2f919e1,
    0xfefe1226, 0x081ae7ff, 0x11f1e4eb, 0x010102fc,
    0xfffb0a00, 0x04031512, 0x08fbf1e3, 0x0b0a1a07,
    0xfe05f1f5, 0x03f3e2f4, 0x0504ed03, 0x02fcdaed,
    0x06120000, 0xff031414, 0x0a15fdfe, 0x0802f50c,
    0x0a13dbe9, 0x001f07fb, 0x07ff17e8, 0x04fee8e9,
    0xfa02ee05, 0xf705e6f0, 0xf40ffc09, 0x02f2d4ea,
    0xf8000b0b, 0xf60033f1, 0xf9e9d7f6, 0xfcff190e,
    0xf7fff7f9, 0x0af6e3f5, 0x00feed15, 0x07fd1b10,
    0xf901d3fb, 0xf3fa03f9, 0x02f705fb, 0x070511f5,
    0x09061d0c, 0x0bffdeeb, 0xf60e01de, 0x031c11ea,
    0xf803cb0a, 0xf00f03fa, 0x0c082003, 0x0402ccfd,
    0x05090a0d, 0x04014229, 0xf0ff0d04, 0xff02d1eb,
    0x0204f3f9, 0xeb0db906, 0x0909f402, 0x03f023f2,
    0xf90be90c, 0x0c0c040f, 0x0009fcea, 0x090619f7,
    0x04f8eaf1, 0x000200fb, 0x06ffe0da, 0xf2011711,
    0xf9041200, 0xf10716e3, 0x03fff4e7, 0xf4fd150d,
    0x0a05f812, 0xfdfce6e4, 0xf9170216, 0x0211e9e8,
    0xfc04f500, 0x0bfd22eb, 0x0107e6f0, 0xf7022f02,
    0x07ff0813, 0xfb0607f3, 0xebfd011e, 0xfeecdeff,
    0xfa06f7f8, 0x0f0bd90e, 0x03101706, 0xfafdde1c,
    0xfc0e0406, 0xfa0c1f0c, 0xfe02400d, 0x0500e2f2,
    0x0702fbfc, 0x050ac5f4, 0x030dc4f9, 0xfa0336f0,
    0x110b1ef4, 0x07eceb01, 0xfcff0003, 0xff080f21,
    0xfc0ef3fa, 0x010dff0f, 0xefff191d, 0xfff80002,
    0x00f0f8f5, 0xf6f43004, 0xf709e911, 0x01fec317,
    0xf911ee04, 0xf10c01f8, 0xfe001cff, 0x030432e3,
    0x0008e51c, 0xf610e609, 0xf5fb05ff, 0x01efe8e4,
    0x030100fe, 0xfdef1f0c, 0xff05fa0b, 0xeef70407,
    0x06fefffe, 0xe5f6f9f6, 0x1a070406, 0xff0ffd05,
    0xfffaf9fd, 0xfcfd130b, 0xf4020502, 0x03020512,
    0xfdfdfdf5, 0xf006f1fd, 0x0806fdf8, 0x08fd0101,
    0x02ff0008, 0x15090200, 0xf105f5fd, 0x0106eff1,
    0xfbfdf30a, 0xfb070303, 0xfcfc0bfe, 0xf00d0000,
    0x0005fc02, 0x240612fe, 0xfbf30d11, 0xfcfd0921,
    0x0f010cfe, 0xfb0204fd, 0xff06f900, 0x11f6f5f8,
    0x09fe0510, 0xf5f902f6, 0x06f4fffd, 0x0dfefff9,
    0x0f0300fd, 0x0404fdfe, 0xecfff0f9, 0x0afbfff3,
    0xedfb0e02, 0x00000204, 0xf600f4e7, 0xea03f506,
    0xfe030808, 0x0602fc01, 0xf3f3f6fc, 0xe8fbf8fa,
    0x08090b00, 0xed08010a, 0xfe060109, 0x090609fe,
    0x02f705fc, 0x1e03f4fc, 0x00010603, 0xeafaf7eb,
    0xf7000f09, 0xee09f200, 0x1409f6fe, 0xe2f9f000,
    0x0408f000, 0x2b030e0d, 0x0908080f, 0x0a06fdfe,
    0x06f8f5fb, 0xfffaf704, 0xf10bfd0b, 0xf10af0ff,
    0xebfff5f8, 0xfcfefd02, 0xeafafb08, 0x13f81609,
    0xec13ff06, 0xfdf4f9fa, 0xe601fdf9, 0xeeff02fb,
    0x0eeeecf9, 0x0df8e9fb, 0xd3f108fe, 0xfcfffaff,
    0x13070904, 0x0ef9fd03, 0xfdf1070a, 0xf006f9f1,
    0xed010403, 0x1803fc05, 0xfe09fa12, 0x04fffe07,
    0xd50409fc, 0x0809fe07, 0xfefefb04, 0x0300f6f2,
    0xfaf8f50e, 0xf60bfffd, 0xfbf20905, 0xf600f909,
    0xf702fd0a, 0xf5080e00, 0x06f90901, 0xff02f9f8,
    0xfb04f906, 0xf6f805fb, 0x09fbf5fb, 0xf0fef6fa,
    0x03080208, 0xe7f2f806, 0xfd07f205, 0x0ff70303,
    0x08080706, 0x120e0afa, 0x02060c0b, 0x10f8fc01,
    0x06fe0907, 0xfefff40d, 0xdff3fbfc, 0xf3000000,
    0xff06fcfe, 0xe60afdff, 0x0cfefa09, 0xfeedf309,
    0xfa02f20f, 0xfa03ff02, 0x0a0df712, 0xf607f2f9,
    0xd501ec08, 0xff01f0fc, 0xfe020fff, 0x0ef41304,
    0x0feb0d02, 0xf8f6030a, 0x00f71700, 0x0401f9fc,
    0x0804eef3, 0xf0f0fefc, 0x14f9eefd, 0x05fbff04,
    0xf9fc0106, 0x0cf30e02, 0xe80a0502, 0xfd06f905,
    0xfdfcfa07, 0x05030805, 0xe9fcfd01, 0x10fef800,
    0xe1fcf9fc, 0xf302f410, 0xfdf903f9, 0x02f5f4fc,
    0xfffe0401, 0x00020204, 0xf2f80710, 0xf2f606f7,
    0x0106eef6, 0x22f2f8fb, 0x1204f4ff, 0x130100fa,
    0x0118fc03, 0xf604160c, 0x02fdf801, 0xfef8020b,
    0xf202f007, 0xf1051300, 0xec06fa03, 0x06fbeff6,
    0x06eafe00, 0xe5fe0409, 0xe1f507f7, 0xfcfdfdfa,
    0x14f4ff01, 0xf50304fb, 0xfcf5fe06, 0xfc000504,
    0x0408fc07, 0x06f9f6fd, 0x1f0300fc, 0xf8f4e606,
    0x0901f400, 0x08fb27fe, 0xe1070807, 0xe606fe06,
    0x18f7f4fa, 0x0bfff1ff, 0x0b0103f9, 0xfc0510f5,
    0xf4f8f6f4, 0x07fe0e04, 0x03f3db02, 0xee0a0d01,
    0x0e0916f8, 0x06ff11f0, 0x2205fd03, 0xf9ff0804,
    0x0efdfd03, 0xf30810ff, 0xdf0cffff, 0xfdf8fa04,
    0xfef21d0d, 0x09f6fd03, 0xedfa05f1, 0xff09f2f4,
    0xf908fef7, 0xea0a040b, 0x05fef302, 0xd706fa04,
    0xf710ed00, 0x29f3f4f5, 0xf1faffff, 0xf503fc00,
    0xfc0409fa, 0x1009eaf2, 0xe4fd0d03, 0x030af9fc,
    0xf6fb0aef, 0x0805130b, 0x03f9f3fa, 0x02fa0f05,
    0x2701fb06, 0x090324f3, 0xfbff15fa, 0xfefbeffb,
    0xfa031502, 0xfa101103, 0x0ff6e707, 0xfe0609fa,
    0xf3fe1ef9, 0xeb0104fe, 0xfaf511fc, 0x24f0ea09,
    0xe4f10502, 0xec03f0f7, 0x10f6ea0c, 0xec0b0a06,
    0xf6fffff7, 0xf6fbed02, 0xfe1bfdfb, 0x050af7f7,
    0xf7fe04fc, 0x1ffaf2f8, 0x20041403, 0xf5fcfe03,
    0x01fe0100, 0x01000503, 0xf70d0201, 0xea041608,
    0xfc0bfbff, 0xf40510f0, 0xf9fff50c, 0xf3fcfefa,
    0x060b0ffd, 0x000d09f4, 0xf30610fb, 0x1403e605,
    0x07fc1200, 0x04f8fffe, 0x0ff8f107, 0x05f4f002,
    0x0407f6f9, 0x0404dc00, 0x0f0fc7f6, 0xdefa18fc,
    0xe40d0601, 0xf4fa0612, 0xec01f6f5, 0x0ef60c02,
    0xfcef06f6, 0x0a0de5fc, 0x1cfde30a, 0x14fced03,
    0x1507fb04, 0xe60a04fb, 0xeb0524fa, 0x08fbfb03,
    0xf0ff10ff, 0x13fa2203, 0x08e8f901, 0xfc05f206,
    0xf506fef2, 0x0102f9fe, 0xda0ff305, 0x1bfcec0c,
    0xe012f8fa, 0xe7110409, 0xeaeb17ff, 0x1cffe205,
    0xf9f2050c, 0xf9ff0df7, 0x0803f7ff, 0xfcecf609,
    0xeffc2202, 0x10f2f707, 0x02f8f2f7, 0x0bf7f90b,
    0xfb0ded05, 0x120b01f4, 0x06fbf908, 0xe3f80e07,
    0xf3f6e602, 0xf0ff0902, 0x010002fc, 0x0200f701,
    0x02fdfe00, 0xf6010dfe, 0xfaf307f9, 0x0a08f5fe,
    0x10fafe0b, 0xfd07fe06, 0xfdfe0e0e, 0x06fa0410,
    0x00010cfa, 0xfcf5060a, 0xfdff03f0, 0x04ff0206,
    0x1cf10401, 0xfdfafbf1, 0x0efafef4, 0x03f60101,
    0x0ef0f700, 0xfdfcfc0c, 0x0500fffe, 0x0afd05f7,
    0x08fb0507, 0x1bf6f30a, 0xef060304, 0x1df9f907,
    0x000906f4, 0x1f081008, 0xf6020208, 0xfe000ef5,
    0x0df9020c, 0x0cfffe02, 0x0a04f90e, 0xf9fffc0d,
    0xe3f2fc00, 0xe8ff14fa, 0xfce9fb18, 0xeff7020d,
    0xf7f20af2, 0x08050101, 0xe3fe05f4, 0x05fffaf7,
    0x19fdf708, 0xedf803f1, 0xfcfb04f4, 0xdef802fb,
    0x2ffcff24, 0x00fe0601, 0xf4fc04fc, 0x01f408ff,
    0xfefc050b, 0x0beff004, 0xf6fbf8fc, 0x180604f8,
    0x1a06080a, 0x15ffff0b, 0x1a0af313, 0x0bf1f704,
    0x02050812, 0xf5f7faf1, 0xec04fefd, 0xfbff14f9,
    0x05f710ed, 0x0b01001f, 0x0501f906, 0xe7fb05eb,
    0x0800faf8, 0x0ffbfd03, 0xf70d0202, 0xf90401f2,
    0x1ef6f6f8, 0x09f7f907, 0xfbf207eb, 0x0709fd1b,
    0xfb03fb07, 0x04f8f4fc, 0xf3fd02e4, 0x18f910f9,
    0xff010bf5, 0x090201fd, 0xf6fc0602, 0xfff6061c,
    0xee1105ef, 0x06eb0e06, 0xf8050900, 0xf9fdf5f6,
    0xf8fc0808, 0xf103f3fb, 0xf10702f4, 0x16f20e04,
    0xe6ee00f0, 0x08060905, 0x040104ff, 0xfa1dfbef,
    0xf9fcfdfb, 0xf204fdfe, 0x04fbfbfd, 0xfc0c070a,
    0xe7ff0cfc, 0xef0501fd, 0xfc0702fd, 0x0cf4f6fc,
    0x13fe0112, 0x0301f905, 0x02fe01ff, 0x020503f8,
    0x00fefc00, 0xf6fbf4f5, 0x15faf501, 0x0b0006f8,
    0xf1fb0902, 0x03f60ae8, 0x09eefa0d, 0xf203f300,
    0xf5070500, 0x09080509, 0xfbfff2f5, 0x25fb0716,
    0xf4000600, 0x03fe04f7, 0xfdfefcef, 0xed020cee,
    0xfffe0803, 0x02f40902, 0xfdf901f9, 0xfbfd0001,
    0x06fc13fd, 0x0e05f500, 0x0cfef809, 0x09f2f505,
    0x0607060f, 0x00030eef, 0x13f8fb08, 0x0804fc10,
    0xf40109e5, 0x05fdfd02, 0xf50a0ff8, 0xf6fb01fc,
    0xf9f2f902, 0x08f4fafb, 0xfcfdffe9, 0xfcf8fc0c,
    0x01fcf702, 0x0c05fb0b, 0xfafdfbf4, 0xf5fc0106,
    0x0f02020c, 0x06fd0cf9, 0x0f02f907, 0xec1002f8,
    0xfdf30607, 0x06f9effe, 0x06f6fe0b, 0x09010a0f,
    0xed2407fa, 0x03f7fcf7, 0xfc09ff04, 0x26f6eefe,
    0xf3130504, 0xf10dfa09, 0x0f00f203, 0xf8070607,
    0x09f807fd, 0x1706100c, 0xe706ef09, 0x09fa01ea,
    0xee01f1f6, 0xd602f206, 0x02f8ff01, 0x10200411,
    0xfafbf4eb, 0xef000b09, 0xfd070008, 0xf6fcf704,
    0x041703f2, 0x1304e800, 0xdefef3eb, 0xd4dfe8f3,
    0x0804f705, 0x2af90007, 0x07eef605, 0xdffcfafe,
    0xf0160d04, 0xf827f8f7, 0xf90b11fc, 0xf71ffa08,
    0xec07fc08, 0xf20b0604, 0x0900f3f4, 0x04fdfa0b,
    0x08311315, 0xf7fa04ff, 0x10e3e402, 0xde01fcf7,
    0x0502fc00, 0xf9f9130d, 0xdef5ea09, 0xfff90405,
    0x0e0a16fe, 0x1ce50405, 0xfbf70b00, 0x13390a03,
    0x010b0905, 0xd302eeef, 0xf0f6f9fc, 0xdbf901f4,
    0x0b01f509, 0x1d11ee02, 0xf7100908, 0x00210702,
    0xef1e0b01, 0x08e0eafe, 0xf0f3fb10, 0xeb011f18,
    0x0f310b09, 0xf21e0108, 0x1a2a04fc, 0xeff600fb,
    0x01130bf6, 0x18f608ff, 0xdce8fc01, 0x1007f5ec,
    0xed0af9fe, 0xfaf6080f, 0x04f601f0, 0xf8fb030f,
    0xf5070110, 0x0513f8fc, 0xcb01ebe9, 0xf10eeffa,
    0x0df9feff, 0xd2e9f1f5, 0xfd06f5fb, 0xfffff706,
    0x23070509, 0xd90d04ee, 0x0f060709, 0x0401fdf8,
    0x211004f8, 0x110b0400, 0xf8f9f2f3, 0xe8fefc07,
    0xfefc0103, 0x091c0bf2, 0x3f1af8fc, 0xe3090e05,
    0xfd010116, 0x07e00e12, 0xec0afaf6, 0x0d0c080e,
    0xe41607fd, 0xe8eef2fb, 0xdbf50a10, 0x0ceefc01,
    0x01f715fa, 0xf40bf601, 0xd81102ea, 0xf3000900,
    0x1b00030a, 0xbe02efe7, 0x10e1f6ef, 0xf8130c09,
    0xfbf4fe16, 0xde092100, 0xe9040206, 0xe5ee17fa,
    0x052403fe, 0xf1edffef, 0x200af9ee, 0xecf1e6e7,
    0x140ef2fa, 0x10060e12, 0x001205ef, 0x1d07ee0a,
    0x07340c12, 0xf4f40df4, 0x27f1f2ee, 0xde02fdf6,
    0xf607fb24, 0xecf9e8f5, 0x29f8fb0e, 0xecebf0f4,
    0x10f00122, 0xf7eff707, 0xef0a1011, 0x1df4f20e,
    0xfe0413fb, 0x13fffb18, 0x35eff507, 0x05fce603,
    0xf6080003, 0x0af2f0ea, 0x01070301, 0x01fdf407,
    0x0afeff0b, 0xfdfbf405, 0xfaf708ef, 0x08fe08f3,
    0x2d03fb1b, 0x0bf100ff, 0x01fc02f9, 0xe60d00ff,
    0xf1ed07fe, 0xfafc08fb, 0x08050517, 0xf748def4,
    0xfb050f07, 0x0327e0f8, 0xf6e43705, 0xfe1a200a,
    0x0df9e200, 0x03e72dfe, 0x03ddefff, 0xfe160405,
    0x0ce30ff0, 0x0bff07f8, 0x0325b7f7, 0xffe20d01,
    0x05daf8fc, 0xff071501, 0xf917c2f6, 0x18dfe405,
    0x0af8fd03, 0xfef505f6, 0x09d724fa, 0x00d9e6f3,
    0xf711db06, 0xfa0a07e9, 0xfee82005, 0x1501e5f5,
    0x09ca1f03, 0xfed711f6, 0xf0250103, 0xfa0708fe,
    0xfd0b170a, 0xffee04f4, 0x15e1f9fc, 0x02fbfdf9,
    0xee1fcef2, 0xfefb0cf7, 0x15e7f30e, 0x1201f9fd,
    0xe8430eea, 0xf8e61802, 0x1127eafc, 0x09e2ea14,
    0x0fe62ffa, 0xfdfe0008, 0x0fc9defa, 0xf6170a06,
    0xfef70ffa, 0x08e40114, 0xfcdc4101, 0xfef20803,
    0x010beef1, 0x07d60ef7, 0xeced16f1, 0x043bebf9,
    0x11da10f5, 0x15dfe905, 0xfce21306, 0xf2f7ecf9,
    0x0bccfb0a, 0xf5dd4b09, 0xfde506fe, 0x08c8fb14,
    0x0920ef0d, 0xf61ae603, 0x0318e20a, 0x1107f613,
    0xf9b7c8e7, 0x0512e8f2, 0x1bfddefd, 0xf4f73804,
    0x1023f9f2, 0xf7e709fa, 0x13d3dc04, 0x05e6f6f2,
    0x0d08cff6, 0x01fad1ff, 0x12f7f5f8, 0x01e20fde,
    0xf917f311, 0x0ee3ff08, 0x08e724ee, 0x0a11e300,
    0x06e6e8fa, 0xf3ef20fe, 0x02f20506, 0xfa0e1209,
    0x1227b5fd, 0x04f20cee, 0x0101feff, 0xf617fafc,
    0x02010011, 0x02bde8fd, 0x00f31205, 0x02ed26fd,
    0x05def505, 0x04d60eed, 0x05d10a09, 0x0300f0f0,
    0x01c73cf2, 0xe937fdf4, 0x0ef5f00a, 0x0714d005,
    0xf103e7f1, 0xee23d502, 0xf4e504fe, 0xfbebe9fb,
    0xe831f603, 0x06ce170d, 0x06c11703, 0xf6d4e111,
    0x10c020f3, 0xf732ea11, 0x1603e504, 0x030f01fd,
    0xf911d9f1, 0x0737c1e6, 0x040ff7fb, 0x0beefaff,
    0x0ad60a16, 0x02fd12f5, 0x0fcd0a04, 0x13f8d902,
    0xf12dda18, 0xffe5ddf2, 0xf2e83aff, 0xfef711ee,
    0x00e73d05, 0xe526cffb, 0xeae06601, 0x03f327ea,
    0x01dfe3fe, 0xf8272cfe, 0x03e4da08, 0xfbee0c0d,
    0x0d141111, 0xfc0f0cde, 0x13ccdafb, 0x0922e0f2,
    0xf5fefdfc, 0xfe140cea, 0xffffee0a, 0x0a101802,
    0xfa15fdfe, 0x0ad8eff9, 0xe5e01f02, 0x16e5e205,
    0xfa0202fc, 0x07ee080a, 0xf90a0200, 0x010f0417,
    0xf9100df2, 0x0427d50c, 0x0a0b1526, 0x0c0bfe1b,
    0x0dea24fb, 0xfa0924fb, 0xfff70805, 0x0b160ff8,
    0xf9ffe5f2, 0xf512240c, 0x08f2e4ea, 0x020d1603,
    0x0703d714, 0x00e6e50b, 0xfaf0ecf8, 0x05091800,
    0x04000ffe, 0x05fcdded, 0xfcf9f711, 0x05ec1f04,
    0xf6ecbfda, 0xfdfc2b05, 0x04f82c08, 0x08e0d0e6,
    0x0209f7f5, 0xf31afa06, 0x0dfae0da, 0xf7003007,
    0xfb06f0ea, 0x17ef4400, 0xf2f5e1ee, 0x030ce0f5,
    0xf5fac9df, 0xf6f512ee, 0x02f3e824, 0xfff10209,
    0xfe0b1f22, 0x03fc1314, 0x0700291e, 0xffeef305,
    0xf91bd51b, 0x00f83c17, 0x09def900, 0xfe04f0fe,
    0xfeffe623, 0x0c0b3915, 0xf400b1f6, 0x0aed43f5,
    0x0604ef01, 0x01e70711, 0x06ef1405, 0x07f2fdeb,
    0x0ae719ef, 0x09251df1, 0xee00baee, 0xf007da1a,
    0xf4e7eed3, 0xfeffdc0a, 0xeaf1f901, 0x060e05fe,
    0x00fbeff3, 0x00f40cfc, 0x0e132a05, 0xfdf8f819,
    0xf30813ea, 0x060c2611, 0x00d5e106, 0xfefb2a1f,
    0x02ef07f7, 0xfe0629f6, 0xf716be0a, 0x0cfc1800,
    0x01e62218, 0x02ef16ef, 0xf8e40d15, 0x07ef4a14,
    0xfb09e71d, 0xf7e0c7f5, 0xfcea0405, 0xfff621f5,
    0xeb00cbdc, 0xfb0505fb, 0xfb11180b, 0xf8fa13f4,
    0x03151707, 0xff18f522, 0x0300fe2d, 0x0b02b00a,
    0xfff4f408, 0xfa0df2f8, 0xf20df2fe, 0x0af82827,
    0x0007fbec, 0xf91105f6, 0xfa070624, 0xf314cbfc,
    0x03e216fc, 0x06ea1318, 0xf8fcc2fd, 0xfd191604,
    0x030b360d, 0xf9f3eb06, 0x0bf3d5c9, 0xff131a0d,
    0xfbfe05f4, 0xf6e903f3, 0xfc0aff04, 0xf0fe05fb,
    0xfcff0c1e, 0x00e2153d, 0x02fbd6cd, 0x06034614,
    0xffffe30f, 0x02ed0123, 0x0be4e0f3, 0xfbeb2e0f,
    0xfffc2ff9, 0x020ef905, 0xfc08dffa, 0x080e33f5,
    0x0c000aef, 0x01132d2f, 0xfc0b2f16, 0xfcdaf7eb,
    0xf500fae4, 0x0402ea03, 0xff01a6ed, 0x0b0b3fe6,
    0xfb070ede, 0xf8e20510, 0xf0f80047, 0x0f0712f7,
    0xfaf11d1a, 0x0b041dfa, 0xfd230913, 0x07fefad9,
    0xfeee061c, 0xfa05f717, 0xfb05fdf6, 0xfffcc1fb,
    0xf20f01fe, 0xf8fd11dd, 0xfe0d0ef1, 0xfa0bdfc5,
    0x11f624f4, 0x05131bf8, 0x06fff605, 0x0ce117f5,
    0x04fc08e6, 0xf504dd05, 0xfe03eff5, 0xe0f5f305,
    0xff0100fa, 0xf3fa00f8, 0xebf90c00, 0x0901080a,
    0xfc0dfdfa, 0x09011205, 0x16090808, 0x07fb0ff8,
    0xf9040810, 0xf0f50308, 0xea04f800, 0xf8f313fe,
    0x1d00fafd, 0xf90501fe, 0xfe02f101, 0xf9fe0a04,
    0x0afd0bfb, 0x10f807ff, 0xf5f40ffb, 0x1a0002fd,
    0x25fefbfd, 0x3a040d01, 0x1c000809, 0xeaf8f303,
    0x0c150dfe, 0xed0305fb, 0xecf5f9fd, 0xfd0df405,
    0xfb0202f1, 0x03f7f900, 0x0dfeff07, 0xf0f509ff,
    0x070bfd05, 0xf6f4fe04, 0xd904fbf7, 0x13fffb02,
    0x0ffd1005, 0xee0105fe, 0xf50ef0f8, 0x0105f708,
    0x07ff1d0a, 0xfe000205, 0xedfcf5f5, 0xe9060a00,
    0x0cfe1102, 0xeef7ebff, 0xf7ff0afb, 0x06070b08,
    0x0f03ff0d, 0x0cf80ef3, 0xfbf00803, 0x0106f10e,
    0xf503100a, 0xd506f605, 0xf7010003, 0x0dfefe0b,
    0x1f0b1afc, 0xfc0117fa, 0x0400f9fd, 0xe901faf9,
    0x0b0be1fe, 0x060800fa, 0xf30af6f4, 0x1004ebf9,
    0x08130805, 0xdffbf3fc, 0xfa02fdfc, 0x09fdfe00,
    0xd8f2f605, 0xecf4f9fc, 0xd501f2f7, 0xf0fe1001,
    0x15fd1302, 0xff0a0600, 0xf2f801f4, 0xef0015f7,
    0x0e0302f9, 0x0cf9fdfc, 0x04040eff, 0xf90afc0c,
    0xf3fdf503, 0x00f60702, 0x09f7feff, 0x12f6fe10,
    0x1809f1ec, 0x0aff0afb, 0x00fefcfd, 0xfa04f404,
    0xf001fefa, 0xd5f5f6ec, 0x0c050307, 0xf7f80802,
    0x1108fcfe, 0xf5f2f801, 0xef08faf5, 0x1200150e,
    0xefff1302, 0x1afe01fe, 0xfbfcec0d, 0x07fbf4f5,
    0x19fd0000, 0x0908f3fa, 0xdf08f903, 0x2dfc0dfb,
    0x28061216, 0xe9fd05fd, 0xf0fd0704, 0xcf02f2f8,
    0xfc071c0a, 0x0bf9f601, 0xe50afa04, 0x15f80502,
    0x1bec060d, 0x00f3f9fc, 0xe61a0801, 0x06f9fff9,
    0xeaf2e5ff, 0xf20c0a06, 0x01feed04, 0x09f6ef07,
    0x0601fef1, 0x0500070d, 0xff090000, 0x2b0202fd,
    0x070320f8, 0x210b0003, 0x2bf90af5, 0x13f50700,
    0xe003e3f7, 0xfefd09fa, 0xef00f5f4, 0x0d02f802,
    0xec09f5ff, 0xfbfb0f02, 0xd9fce9fc, 0xfdeef900,
    0x06fbfbfb, 0xf9f6f207, 0x05f8f9f7, 0x03fd04fe,
    0x070000f7, 0x1afb08ee, 0x0ef8080f, 0x07f4f5fd,
    0xfefb050a, 0xeefe0201, 0xf90705fc, 0xf904f203,
    0x0c04fe02, 0xf4e6eefe, 0xe708edfc, 0xfdfddbfe,
    0xfe0303ff, 0xf8fb0efd, 0x10061a02, 0xe921eefc,
    0xef09fe0a, 0xe802e006, 0xf108dd04, 0xf6f61704,
    0xf8e20302, 0xef0cf609, 0xeefaebf4, 0xf905f6fc,
    0x0bf90a07, 0xfced02f8, 0x02fefa01, 0x02ff11fb,
    0xff0eea03, 0x01fe10fa, 0x02041403, 0x0e0bfdfa,
    0x1ff30305, 0xf700fe0a, 0xe5fff001, 0x0202f5fc,
    0xff04e3f9, 0x07030705, 0xfe06c406, 0x02050504,
    0x02ef1b06, 0x200ae004, 0x070500fd, 0xfe070afc,
    0x06ff2304, 0xf7041403, 0xfe08f301, 0xf40ae903,
    0xfc02f901, 0xf4f00006, 0x011213fe, 0x00fffcfc,
    0xe9050a00, 0xe500e9fd, 0xf903f1fc, 0xf6010c04,
    0xf417f6fd, 0x04101d00, 0x0bff1afc, 0xf208fbfd,
    0xf61cf0ff, 0x18faf403, 0xfef5fafc, 0xefe7f9fd,
    0xec11e1f8, 0x100b0afe, 0xd4f1dfff, 0xfc09da09,
    0xf30d0302, 0xf116f402, 0x1409fe07, 0xf8021002,
    0x03f202f4, 0xfaf209f6, 0x0401ffef, 0x05effa03,
    0x00fb1205, 0xe6ffe601, 0xfdfce7ed, 0xf81007ff,
    0xf4e92b00, 0xdc0efa00, 0x0ff314fc, 0x23012cf2,
    0xee040c03, 0x1009f409, 0x12f515f8, 0xf906f0ff,
    0x010ce802, 0xedf419ff, 0xea021a08, 0xff12f601,
    0x0ff8f9fe, 0x00fbf1fd, 0x05fcf30a, 0xe707eb01,
    0x0001fefd, 0xfefeff09, 0xf605ea07, 0xe9011900,
    0x010bf701, 0xe903eff5, 0xf0f60605, 0xfa0008fe,
    0xee031cf4, 0xf90416f7, 0xfcffe706, 0xeef7f603,
    0x01fcfe0d, 0xfcf50100, 0x0c0b08f8, 0xe1fff005,
    0xf00f01ff, 0x16051eff, 0x17f5f7fd, 0xfd01fcf8,
    0xf20f0c03, 0xf3f31ef1, 0xf520fdff, 0x08f714f7,
    0xf20a0bfb, 0x1afe2c11, 0x1a0afaf8, 0x1deb1a03,
    0x12f315fe, 0xf60afcfd, 0xfb0106f7, 0x0d070003,
    0xf00916fd, 0xff000f00, 0x18ee0100, 0xfd040905,
    0xee1ddffa, 0x360618fc, 0xf71aea03, 0x1408f509,
    0xd820e102, 0x000a0ffc, 0x09f32303, 0xeb08d300,
    0x09f61607, 0xed04feff, 0xf1fee6fa, 0x000de0fc,
    0x050016ff, 0x08fc070f, 0xfe020306, 0xef0ae904,
    0xe9e8faf9, 0x0cfed902, 0xfbf60109, 0xd0fafaff,
    0xf6000708, 0xedff0e01, 0x0506fdf6, 0x0c0402fc,
    0xfdfded02, 0xf9f4f004, 0xfd0608f5, 0x010ceff0,
    0x0e0afe03, 0x0a0dfee3, 0x0301071b, 0x060607fc,
    0x0af9fee3, 0xf7fefe24, 0x0cfc0710, 0xff03fb04,
    0x1bfa060c, 0xfcf6fbfd, 0x0afefef7, 0x03fffc17,
    0xf8fd1306, 0x000e0ff2, 0x08f605ea, 0x0cf609fb,
    0x01fefe09, 0x16f7fa09, 0x0306ff05, 0x17000711,
    0xf7f80ade, 0x0c0111ec, 0xee00fc13, 0xf9f604fa,
    0x0b010b13, 0x050303fa, 0x12060a10, 0x03fc011d,
    0xf703f01d, 0xf5fe02fb, 0xf4ea0d03, 0xf411ecf7,
    0x0101fdf5, 0x06f80310, 0xeffefeed, 0xfef6fdf0,
    0x0b04f7fc, 0x040b1005, 0xec01fdf1, 0xdc090bee,
    0x21faf52f, 0x0100fbfa, 0xf500f6f4, 0x0af3ecfe,
    0xecf9f915, 0x01020714, 0xeb020a08, 0x1300eefc,
    0x0f09fffd, 0x0f13feee, 0x06010716, 0x000706ce,
    0xf4050df8, 0xf2f209e8, 0xf701fa0b, 0x06f510fd,
    0xf80201f3, 0x0207fe07, 0x0d04fdfa, 0x09001303,
    0xea190ff6, 0x08f70aef, 0x01020609, 0xf3fbffdc,
    0x3609021c, 0xeffe01e7, 0xfb0004ed, 0x0f070812,
    0xf1f9f9fd, 0x0a08fa13, 0xffeff9ed, 0x1405fe10,
    0x0f08eef0, 0x0f0c03ff, 0x06f6f703, 0x0100020f,
    0xfe050605, 0x06f20813, 0xf8fef521, 0xf7fe04f1,
    0xf2f107f7, 0xf503021f, 0xf903fb06, 0x0804f5eb,
    0xf2f202f2, 0x04fffd18, 0x02fefe01, 0x110800f8,
    0xf7fcf4f7, 0xf7fe0506, 0xf20f0609, 0xf301fe0f,
    0xe3021600, 0xf4f803fd, 0xf2021300, 0x1c0208f9,
    0x1b04fd04, 0x13f500e7, 0xf3fe03ff, 0x14fef8e7,
    0x1e04f418, 0xd40302dc, 0x12fcef12, 0x1b050003,
    0x0d0ef815, 0x10f615eb, 0x0304fa1d, 0xf7f508f1,
    0x060b0014, 0xe40a11ec, 0x150103fb, 0x0807fd09,
    0x020afc0c, 0x020309ea, 0x140304ec, 0xe4faf203,
    0xe80512ee, 0x08e6f00f, 0x01fd00dd, 0xfd03feec,
    0x05f3f50a, 0x00fe0306, 0x0f07082b, 0xfe03f30e,
    0x140bf72e, 0x010011eb, 0x150eeb3d, 0x0605fc00,
    0xf3020efc, 0x13f5fa1d, 0xec020ded, 0xe508f802,
    0xfbf5f6fd, 0x26f80411, 0xfd01fef7, 0x17fafcfa,
    0x0306030a, 0x1efdf910, 0xf2fe01ef, 0xee0108f4,
    0xf40f0bf8, 0xeef912f6, 0x220bf21f, 0xe6f302e6,
    0x00fc00fd, 0x11030e12, 0x0a070114, 0xf70a01fa,
    0xfffdf904, 0x150209f2, 0xfc00f9ef, 0x27f7f8f7,
    0xf9fd000d, 0xeb010510, 0x2ce6f314, 0xfff402ef,
    0x0cfb0afc, 0xe5f30a01, 0xfbf605f5, 0x07ff06f2,
    0xfe1302ff, 0xfc020d12, 0x05f00106, 0xf6090901,
    0x0df701ed, 0xf4080507, 0xfa070403, 0xf0f2f1f7,
    0xedfff3ff, 0xe8ddf3f5, 0x0627f501, 0xf313fffa,
    0x0ff300ec, 0x1be501fb, 0x04f600fb, 0xf0f91103,
    0x0116ff04, 0xfd0c08fc, 0xf3e80208, 0x0302f9f7,
    0x00f30d03, 0xfeed0503, 0x16fa0510, 0x0304fd05,
    0x2912f3ff, 0x02edfaf5, 0x050bf3f3, 0xf1fa080c,
    0x080aef06, 0x0319fd1d, 0xe3e70ce3, 0xfffafbff,
    0xeb070018, 0x22f5ff0d, 0xf9e8ef08, 0x0100f1f2,
    0xfaf8040f, 0xeef7fdfc, 0x071002ee, 0xe3011406,
    0x00f402f5, 0x1fff0209, 0xe4f20204, 0x1619f117,
    0xf6f20dfc, 0xfa1104f2, 0xf3f8fb01, 0xeef6010d,
    0xfaf609f6, 0xfc20fd1a, 0xfb1e0514, 0x0309f90b,
    0xf00f100b, 0xf402ff08, 0xee040c1b, 0x23130e06,
    0x14040109, 0xfd0f10fc, 0x10f8f9f9, 0xfafafe08,
    0xff08fd15, 0x08e008fc, 0xe316f900, 0x00fefffa,
    0xeadefefc, 0xe8d304fe, 0xea15ef0d, 0xfa05090b,
    0xf2d3f2f1, 0xfd12fefb, 0x1e0f06f9, 0x11f50900,
    0x0ee4fa06, 0x151efbf5, 0x12e1f712, 0xeae5fc0f,
    0xfefcfeff, 0x12120c00, 0x20f8fc13, 0xe5090c12,
    0x1014fb0a, 0xfaf2eafd, 0xfd14fe19, 0xfdf62011,
    0x12071000, 0x0525f0f8, 0xe0ef0001, 0x070800ec,
    0x041dfd12, 0xf9051410, 0xeb0a0804, 0x100debef,
    0x1a0afb05, 0xe80806e7, 0xf511ecf7, 0xfaf90015,
    0x03090403, 0x0e16f828, 0xfbf11100, 0xf40eeb0b,
    0x01090a07, 0xdffb07f9, 0x16e9e6f1, 0xff11f7e7,
    0x0c3008fb, 0xe415ee1d, 0xe1fffd1e, 0x02dd00f9,
    0xfe1f100a, 0x0b120014, 0x0ce9e8fe, 0xf6f101f2,
    0xe6f51413, 0xcfefe7e9, 0xeed2f9fd, 0x091b0101,
    0x02f50eef, 0xf60206df, 0xf202050e, 0x04f8f3f8,
    0x00000924, 0x070af905, 0x2109020e, 0x0febfbf4,
    0xf2030912, 0xfaebfffc, 0x05fffff1, 0x04fc07fd,
    0x0c14ecfa, 0x072706f3, 0x0217fbff, 0xeefdfe0e,
    0x0d03fbfa, 0xfe15f511, 0x01fe0301, 0xf500fb0a,
    0xfcff0203, 0xf91105fe, 0x0dff291b, 0x192ce3f0,
    0xfae001eb, 0xf2f0f506, 0xfcf9000a, 0xf2fe1407,
    0x1705e4f5, 0xedf40ef4, 0xfee00bed, 0xde152315,
    0x0201f7e7, 0x13eee702, 0x23ced0f8, 0xfdf4fdd4,
    0xffed1b04, 0xe5f2d507, 0x22ecf8f2, 0xf906f301,
    0x04fc01fc, 0x02d40bea, 0xee141810, 0x07f521f3,
    0x23f8e5f2, 0xf7f9e5f1, 0xfc0a0ef4, 0xfd02fb1d,
    0x0ae11cf0, 0xf7f9fff8, 0xfe0ef8d5, 0x06fbf005,
    0xed230b19, 0x01e2f10a, 0xf908e8f3, 0xf714011d,
    0x14f2000a, 0x01e6f9f0, 0x150afd16, 0x0d0301f8,
    0xfffb0cea, 0xf306f202, 0x040a07ff, 0x20e5ee2f,
    0xfcfe29bc, 0x0cfbfb02, 0xf604dcfc, 0x07fe0c0c,
    0xfd22301a, 0xfefae2fd, 0xf3f9110c, 0xf5e8ede7,
    0xff05f4cc, 0x08eb0c01, 0xfadd01f5, 0xfffccaff,
    0x00fb3704, 0x0f07e719, 0xf500ff08, 0xf41efee4,
    0x03fe3308, 0xe0033524, 0xf9eddff8, 0x02f7ee08,
    0xf6080c25, 0x0e1cfb08, 0xfd0df2f8, 0x06fb0017,
    0xf0e3cbce, 0x0dfc1c00, 0x1ceed5f1, 0xe40a1803,
    0x1319ef08, 0x06eaf4f6, 0x1bf9cef9, 0x011a10e0,
    0x1dd2dacf, 0x08e30df3, 0xef090eff, 0xee2e10d3,
    0x04e3ee11, 0xefeef9fa, 0xf6193014, 0x1ef3d5ef,
    0x07deeeef, 0xefea0c06, 0xecf4081f, 0xf20f0cfb,
    0x1b0af3fb, 0xedff2aec, 0xfcfefb01, 0x01e2d507,
    0xf5f61644, 0x05fee3f8, 0xfadb0c0a, 0x02f413f2,
    0x1aee1615, 0xe9f7faf7, 0xf7faf605, 0xfde1dfd8,
    0xe00b08f4, 0x05edf2eb, 0x020f180f, 0x16f5eae8,
    0xe705e2d6, 0x251df0f5, 0xf0f008fc, 0x03c90be6,
    0xf6eb0809, 0x15e50a28, 0xe6fefdf0, 0x22ecdef6,
    0xfceb01f8, 0xf9f31827, 0x01f2e7e5, 0x05fcfbf1,
    0x10e61005, 0x09eeddf2, 0x13e4c5f0, 0x03d51336,
    0x17dc0a2e, 0x0a072801, 0xf8d7b9f6, 0x1bed0207,
    0xf1102509, 0x01edffd9, 0xce0423f2, 0xff1222f5,
    0xecdd3d03, 0x17fcf3f4, 0xe6e82f03, 0xf70207d8,
    0x20f2fc1a, 0xefe80ff0, 0x15f5ff1f, 0xfee5011b,
    0xe7f00f34, 0xf8f90ada, 0x14f3cef2, 0x08fd0bef,
    0x00fa0cff, 0x08e8f1e0, 0x11e6de07, 0xf20c0314,
    0xf91500f4, 0xf1da3522, 0xe5dc05f1, 0x03ec0825,
    0x03fe03fe, 0xeafb0cde, 0xf8f90dfa, 0x0117fd0a,
    0xfcea15f3, 0x0f0dff04, 0xfb0cfc00, 0xfe0be1fd,
    0x050b2208, 0x0503f3f9, 0xf60d4808, 0xfd13f9fb,
    0xfffd0c01, 0x040af6f2, 0xe8050b12, 0xf6f20fff,
    0x04f91d08, 0x05f6f108, 0xfe06c800, 0xfaf6f5ed,
    0x02fafe04, 0xfbfc09ff, 0xfc001bff, 0xf3120104,
    0xfee4deed, 0xf4150502, 0x04de1901, 0x11e21dfb,
    0x0609f0f7, 0xfb25d1f2, 0xf70fdbff, 0x03001308,
    0x05ec1bf9, 0xfffc2cf3, 0xf706fa0b, 0xf810c5eb,
    0x0802e90a, 0xfffd260d, 0xfe082818, 0xfb16bc08,
    0xed051b09, 0xef06fb09, 0xfc1a2b01, 0x04011307,
    0xf812c2f3, 0xf6f30203, 0x0c0525ff, 0x02fcfaff,
    0xf701d5fc, 0x0411160f, 0x0200d50a, 0xfdebfbf9,
    0x03fee4f5, 0xf6faff1b, 0x04f61406, 0x0df80205,
    0xf917db00, 0x0e03e9e9, 0x0b1409f5, 0x03feca08,
    0x03e9edef, 0xf8ffec08, 0xfe15f200, 0x0e06160a,
    0xf402b4f4, 0x07ed18f6, 0xf6f219f1, 0x0bf30409,
    0x01f843fa, 0xff04eaf7, 0x09f80c05, 0x0c053711,
    0x0604e516, 0x020604fa, 0xff13df1e, 0x0204ff0c,
    0x000a1b16, 0x0109d71a, 0xfbf83107, 0xecee48ec,
    0x0525b204, 0x0502f006, 0xfaf23000, 0x01010405,
    0x060d06fe, 0x05024c0d, 0xfb01ef01, 0x000211fe,
    0x0502f8f5, 0xfc0f26eb, 0xf01bed11, 0x0611e40e,
    0x04fefa03, 0x05ffe6ef, 0x0407cbf0, 0x0007ec0d,
    0x040711e7, 0x0f14eeeb, 0x06f10806, 0x0b0fcaf8,
    0xf5fb3106, 0xf0fb1cfc, 0x1209e411, 0x051128ff,
    0x01013bf3, 0x0309f0fb, 0x05f80303, 0x0d004b1b,
    0xf707fb04, 0x10f41918, 0x040e09f1, 0x0910e9ff,
    0xfa0f180f, 0xf9ec5520, 0x07fdd403, 0xf4fc5203,
    0x02ff2006, 0xf6f40d11, 0xe90a0303, 0xfb064212,
    0xf3e63be0, 0x041511eb, 0xf3f20401, 0x031b1a06,
    0xfb01e4fe, 0x0202180a, 0xfe161a0b, 0xf8fffa0d,
    0x0d0716f0, 0xf7f5f3fd, 0x0f14d3f0, 0xfdeb4d05,
    0xf20cedf6, 0x05fe0004, 0x04025319, 0xfa1a03f4,
    0x00f7fc16, 0xff03f3f2, 0xfa16f2fc, 0xff100709,
    0xfbfb110d, 0x08011ffb, 0x05f70401, 0xfc15dbf3,
    0xfbff3ff7, 0xffe4e6fd, 0x04fb4002, 0xf80be1f2,
    0x0903f7ea, 0xffffea01, 0xfdfff6fc, 0xfcf92a01,
    0x0c06050a, 0x08ff14fc, 0x18fbfb04, 0xfcfbf6fd,
    0xf1fbfb00, 0xfafff705, 0xdcfffb09, 0xf4fa09f8,
    0x11fe04fa, 0xd4fb0004, 0x03f6ff03, 0xe0fb010d,
    0xf5fe02fd, 0x01faf1fe, 0x0500f506, 0x15f40701,
    0xeffe0d0d, 0x060cf9fc, 0x0400f907, 0xf401030a,
    0xf80109ff, 0xfd051101, 0x1af3fcfb, 0x06fdf708,
    0x0efafcf9, 0x1b0b1301, 0xfafc0405, 0xfa08f302,
    0xed020008, 0xe0f5fefb, 0x1809f802, 0x170b01fb,
    0xfe030418, 0x1dfe04f7, 0x21f0f8f7, 0xfa0805f1,
    0xeef90e01, 0xe90213fb, 0xf903f508, 0xc50007fe,
    0xdefe0bf5, 0x02000503, 0xe60cfa08, 0xeef4ff08,
    0x1cfe10f7, 0xfd05fdfc, 0x0af4f700, 0xdb050608,
    0x0dfe0a04, 0x3505f9f2, 0x090708f6, 0xe3000ff3,
    0x06040402, 0xe4ef0af8, 0xf4f9150e, 0x0e00f600,
    0x05fafd06, 0xf703fbfb, 0x18fffef9, 0x2ffd0ef9,
    0xebf8fa0d, 0xf500090b, 0x17fff202, 0x12050709,
    0x0e10e8fe, 0x070af200, 0x0cfeee08, 0x0509f502,
    0x27090a01, 0xd6010907, 0x07faf204, 0x0202fc03,
    0xdc0bfaf8, 0xf7030604, 0x010b0108, 0x15f40904,
    0x02ff0303, 0x1bf706fb, 0xf2ff02fd, 0x19fbfff4,
    0xf4050bfe, 0xebf803fd, 0xfa030503, 0xe102f700,
    0x0704fe0c, 0xebff10f5, 0xf703ff02, 0xe5faff01,
    0x05f4f70f, 0x05fb0a06, 0xfffff7ff, 0x1301f608,
    0xeef9f7f8, 0xf2fb0700, 0x00090701, 0xfa06fd03,
    0x0305ff00, 0x1ff0f0ff, 0x010cfd05, 0x0af51208,
    0x020205f3, 0xeefffa04, 0x0502f3fc, 0x0b01f814,
    0x3ef40cfe, 0xcc03ea0b, 0x1dfa050a, 0x13080d05,
    0xedf511fa, 0xe3f00b01, 0xf4fa04fd, 0xdaf70af8,
    0x000710fe, 0xef02faf9, 0x0b06fe00, 0x0aff17f9,
    0xeff616fa, 0xf908fffe, 0x2903fdfb, 0xd5050105,
    0xecfc0c05, 0x02050702, 0x1bfdfdf5, 0xfefaef05,
    0xddf8f305, 0x0afffcfc, 0xf406ff01, 0xebfd0406,
    0xfb001cfb, 0x0f0007ff, 0xd5f30d04, 0xeffe0af8,
    0xd6fdfeff, 0xe8030314, 0xfbfc04fd, 0xfc0700fd,
    0xe6f303fd, 0x09020f02, 0x010300fd, 0x0309f402,
    0x05080305, 0x0410fc04, 0xdd08fd02, 0x0810f903,
    0x1502f60b, 0xf6000903, 0x08011bf7, 0xf304f8fb,
    0xfcfb07fd, 0x2101040e, 0x03ee000e, 0x0a07fd03,
    0x0103e001, 0xdfffef04, 0x1b0b19fe, 0xf806e6f0,
    0x150bf7ff, 0x030124fd, 0xf2f9f901, 0xf80908ff,
    0xfffc0f01, 0xee0f1607, 0x36042403, 0xda0bff08,
    0xf30b0a03, 0x0bf702fd, 0xfa0515f0, 0xe7fe15ff,
    0x03f50004, 0xef03f800, 0x0b000502, 0x0f0321fb,
    0xeffacbff, 0xfe0703ff, 0xfff006fc, 0x0d000ffe,
    0xfc0c0c08, 0xe906e2f7, 0x08102af4, 0x1002e9fe,
    0x00ff0bfa, 0xf30ef9fd, 0xe3f5c905, 0xf307dd0a,
    0xef05f300, 0xf8f7d3fc, 0x11081bf8, 0xf901f807,
    0xde07d9fe, 0x0cfe1ff4, 0x24ff3002, 0x03fbd8ff,
    0xee05d50d, 0x00fb24f9, 0x22034dfc, 0x02f7fffa,
    0xe7feebf6, 0x0f08f304, 0x0d09f2fa, 0xca08e4f0,
    0xf910e409, 0x0ffa1ff7, 0x0dfc3003, 0x330633ff,
    0x131e160c, 0xd2faf501, 0x0efffff9, 0xf0f90004,
    0xf606c90a, 0x04f6e708, 0x2407fa05, 0x10fef300,
    0xe4fdf506, 0xeb0abffb, 0xe8f5f9fc, 0xfc0012fe,
    0xebf70801, 0xe3fded0a, 0xf601300f, 0x0111d0fc,
    0xec00e0ff, 0xf8f90e00, 0x0319ddff, 0x0606f804,
    0xf204eaf5, 0x06030cfe, 0x07ef1af9, 0xf60f0807,
    0xf512f507, 0x21000df3, 0x11fa280b, 0xf507fdee,
    0x0a05f9fd, 0x0bf7040b, 0x0605fe07, 0x0d08edff,
    0x09fbf8f8, 0xf20502fc, 0xe4fed601, 0x110b1600,
    0x03fefcfe, 0xddfb0ef6, 0xce06f001, 0x08090501,
    0x0f09feff, 0xfe0efe10, 0xff06f0f8, 0xfc05e6fd,
    0x0201e506, 0x01f91808, 0x09fa09f9, 0x05fa2005,
    0xf801fc01, 0xed06fc0f, 0x06fbfc08, 0x0bf8f3fc,
    0xe212ea00, 0x34f52304, 0x1a0505fb, 0x170bf407,
    0x04092202, 0xfefc09fa, 0x1b0cf2fc, 0x04fe1002,
    0xed03f008, 0x23fe4003, 0x06fdf50f, 0x14e91e03,
    0xeaed0e01, 0x0e0a39fe, 0x0014f6f7, 0x0a0609fe,
    0xddfbf2fd, 0xe8f506fe, 0xf301fe04, 0x25f4f5f9,
    0x0afa2206, 0x0f001507, 0x1b0b26ff, 0xfcee11fe,
    0x020830fb, 0x340258fc, 0x0f030f07, 0x21082509,
    0x07f71201, 0xf5091700, 0xf118e602, 0x0e102407,
    0xfd03e0fe, 0x09fefc01, 0xfb07f5fc, 0x09f90bfe,
    0xff0b00fe, 0xfbf6bffb, 0xd0f509f6, 0x01f900fb,
    0xfafa2102, 0xe9041706, 0x0001f6fb, 0x120508f6,
    0xf60303fb, 0xe2fd0d00, 0x07ff0101, 0xee05ffe4,
    0x021b0c05, 0x0d1307ff, 0x1d060e05, 0xf2fe01f6,
    0xfcf30113, 0xfa05fd0c, 0xff060009, 0xe4f2f3f1,
    0x03180408, 0x0df4faef, 0x040a05fb, 0x0a07080d,
    0xf6fb00ee, 0x0cf5fdff, 0xf4fa03f2, 0xfb090e0e,
    0x0507ff08, 0xec01f105, 0x3a0cff0d, 0xe4fcfc01,
    0x02fff506, 0xfbfef403, 0xe1fcf0f6, 0xfa070be5,
    0xfbfc06f3, 0x2bf30b0c, 0x18040f06, 0x0c02f60f,
    0x21f3032b, 0x13000519, 0xf0f70af4, 0x0103f530,
    0x0dec03ff, 0xf7040202, 0xfcfe05f6, 0xf8fbf213,
    0x040900fc, 0x24020f20, 0xe20a00fd, 0xf3f706fe,
    0x0a09fb02, 0x00fffd04, 0xe9f7fe04, 0xfffe0dfc,
    0xe2fffbeb, 0x1410f119, 0x0e0e0313, 0x0d050206,
    0x05f5f6f4, 0xf7fef703, 0xfd07fa1a, 0x1006fefa,
    0xdf0afbed, 0xf6e50efa, 0x2e07ff1b, 0x16eefdfc,
    0xd3fce9f0, 0x20faf2f9, 0x0c0806f7, 0x2f0a0129,
    0xe401fff1, 0xfafdfaeb, 0x1cfcfb0b, 0xd8f804f6,
    0x10030e04, 0x2004fbeb, 0xf80205fb, 0xf8fafbfe,
    0xf000f7ee, 0x0dfe0508, 0x04f200f6, 0xff090aff,
    0x010111fc, 0x0cfb0b20, 0xd8fefbf0, 0x040c08f4,
    0x25f00e0a, 0x01020afa, 0xe40602fe, 0xfafcf901,
    0xfdf3f202, 0x32f2ff17, 0xf600ec0e, 0xff0801e8,
    0xf4f7fa1a, 0xfa0a03fc, 0x02030301, 0x1313fa06,
    0xe6f8ecf7, 0xf3fc09fb, 0x0efbf515, 0xe3f0f401,
    0xf8fa01f9, 0xeb10fdf8, 0x150a0821, 0x26f2000a,
    0x0a0f0303, 0xf30600f2, 0xe8f2f70f, 0xe0fc0d08,
    0x200bff15, 0x0e0604ea, 0x0213fc08, 0x0708ecfb,
    0x180df721, 0xfff30fef, 0x11fe0312, 0x1ff909fe,
    0x1502f90e, 0xcef301ee, 0x0a050b17, 0xd9fa01fe,
    0x1200ff21, 0xfa000eee, 0x1903faf8, 0xe5f2ff05,
    0xeae809f4, 0xe50202ed, 0xf1feeb10, 0xe5f7f609,
    0xe5f7f6f8, 0x0706f602, 0x020eeafd, 0xfd0e020a,
    0x0501fdfd, 0x0ff3fc10, 0xf7fdfe28, 0xe803f71b,
    0x09f00eee, 0xfe1d0908, 0xf0f30ef0, 0xeef6f602,
    0xe707ed03, 0x13101007, 0xe5f70908, 0xf90f13ef,
    0x00010b04, 0x1a1607fc, 0xeff503ec, 0x1101ee06,
    0x040805ec, 0xe902f3eb, 0x0a05fb0c, 0xe4f1f9ee,
    0xfcfc0102, 0x2e12141d, 0x000b00f9, 0x000503fa,
    0xfc140108, 0x04170607, 0x0b1902f9, 0xfe020805,
    0x0ae1f9f7, 0xf00a0a0c, 0x01e9f700, 0xf7fb12f8,
    0x02041b00, 0xfd09f705, 0xfaf40c01, 0x0f06040d,
    0x04200a11, 0xf2fa02fe, 0xfdfd0511, 0xfb0df112,
    0xfcf9070c, 0x05fe0802, 0xf9f7ff05, 0xee070afc,
    0x0b0febf4, 0x170f1302, 0xfbe3fe2e, 0xfdcd121d,
    0x040403fb, 0xfc21fcfd, 0xf7050608, 0x03dc0001,
    0xed03fb00, 0xfe11fa04, 0x15040501, 0xef21faee,
    0xf2120416, 0x1303f9fb, 0xf1d9fb01, 0xec0200ef,
    0x0c28fd02, 0xe7e2f4f9, 0x07ed0803, 0xfde2f9fe,
    0xec2b09f9, 0xfffdfa03, 0xf1d310f4, 0x00fa02fa,
    0x0b13fbfe, 0x0df8f6ec, 0xfcfafbf4, 0xdc23fff9,
    0x15fdf1f2, 0xe8fbfc09, 0xf1d61d14, 0x02de01fe,
    0x0bf00900, 0x00220d0f, 0xfe0b01f3, 0x14f0fe05,
    0x1600fa0a, 0xe5de0108, 0xf9eafafe, 0x27ffe7f0,
    0xe71105f7, 0xf9f2f1fe, 0xf720ff19, 0x0113090e,
    0x0109f9fb, 0x06090b0f, 0xd9f21a13, 0x08f3fa0f,
    0xf3141310, 0xfa0af908, 0xe619f9fc, 0xf0fa0dec,
    0xe90104f7, 0xfa1511f9, 0xf7ea1202, 0xf0edfb13,
    0xf1260cf2, 0xd600f5f7, 0xfac605f4, 0xf500160a,
    0xf0180ce4, 0xf7ebfd14, 0xe7111b0c, 0x1af1fbf3,
    0x1a03eaf9, 0x100a000d, 0xe5f1fdfe, 0x030308eb,
    0x00fcfefe, 0x070ff5f6, 0x0a11f0f8, 0x01f9f0ec,
    0x0df20804, 0xf10506f4, 0x02eb0409, 0x022000ff,
    0x0207fefd, 0xe3f00f17, 0x04f70008, 0x14020704,
    0xfe1d0502, 0xf3080605, 0xed07040d, 0x080cfb0f,
    0xf803fbe9, 0x07caf509, 0x10ea08fb, 0x00dfd8f8,
    0xfbe63108, 0xdad40b05, 0x06ef09f7, 0xe4f10b0e,
    0xf20d0309, 0xd0db0e0c, 0x07e4fcfb, 0xeaea0011,
    0x052a0b11, 0x01f30806, 0xe3f5f4ed, 0xecfc05f7,
    0xf51f0019, 0xf704120c, 0xfc09f105, 0xfedafd1d,
    0x05ef05fa, 0x02fb02f2, 0xffeafff9, 0xf8d8fc10,
    0x18f70efd, 0xe5cc00ff, 0xf9f904f7, 0x0cf706e1,
    0xeeec00fc, 0xf112120b, 0x160400f0, 0x1afa17f2,
    0xe11406fb, 0xf8170305, 0xff0c0704, 0xf9f604fe,
    0x14010112, 0x11f00816, 0xf7001615, 0x01fefd05,
    0x06f513fd, 0xf91c051a, 0xf9fbfc06, 0xf505fbf4,
    0x0f06f9ff, 0xf70d030e, 0xfd0ff405, 0xff05be06,
    0x0b02f509, 0x0ef8f416, 0x0004f6f4, 0x0bf30307,
    0x060d1af8, 0x011dfef9, 0xeeffebfc, 0x16f214fd,
    0xf6eede11, 0xf60aed01, 0x1bfb020d, 0xf7f9f3fa,
    0xebf4e51d, 0x22fb03dd, 0x11f6f909, 0x0d0af5f3,
    0x02fb0503, 0x0cdc1a08, 0xf80bf100, 0xef16030a,
    0x02072a11, 0xe5e3040a, 0xefffd3fc, 0xfadfe80b,
    0xefebeb25, 0x0a05faf8, 0x1e040ddd, 0x2ced1aeb,
    0xe2fb1004, 0xfe00fddf, 0xf9e4d404, 0xf4090cfa,
    0x09011a0c, 0xf501edfa, 0x0efdf8ff, 0xfcfc12f6,
    0x07f3020f, 0xe80b09f4, 0xecf4ca06, 0x05ea06f6,
    0xf1e2f324, 0xfd00fc00, 0xfffad3e7, 0x0c06fa10,
    0xf0f1ec10, 0x04150bdb, 0xee02f9fb, 0xe4060416,
    0xf3fc05f6, 0xf40aef11, 0x0213fefd, 0x17fbc905,
    0xf3dee50c, 0x0fd9fa00, 0x0dfe0ff8, 0xf30c34f5,
    0xecf2e928, 0xed16eb21, 0x0bf7f2e9, 0x01150edf,
    0x22fb0bfa, 0x0bf1e50a, 0x16060ce9, 0xf8e1e2f1,
    0xfe1f0bdb, 0x1208f409, 0xe6fffb03, 0x0efb2208,
    0x1014bdfd, 0xef05f601, 0x070b09e6, 0xf51ce3fb,
    0x02ee06fe, 0x0e102bf3, 0xfb07ca09, 0xe30fe01d,
    0x1df52aeb, 0xfafdff0e, 0xefe4e211, 0x04e8eb07,
    0xf62405f0, 0xe50c0603, 0xeff605f9, 0xfe09de13,
    0xde27e9f6, 0xf3fae314, 0xff04fffc, 0x26f9ee00,
    0xf2def101, 0xfaf5ffff, 0xff070a08, 0x03eaf0fe,
    0xfc00f9fb, 0x04f8d7fe, 0xfc1004f8, 0xf00a01f0,
    0xe803ea0e, 0x13f6f70b, 0xfa2101f4, 0xe7dee708,
    0x01092808, 0x00fce418, 0xee1dfe04, 0xeced1409,
    0x0afc1807, 0xf2f2f81d, 0xfa04fd0b, 0x0cec1de3,
    0xe105f7fe, 0x08f71904, 0x06fbeee7, 0x000b3216,
    0x011d1407, 0x0cf010fe, 0x1a2e07d8, 0x03e8e70e,
    0x02c51308, 0x0412f901, 0x15f403e3, 0xfef90a0a,
    0xfd000307, 0xe7f504fb, 0xfff40e07, 0xe7e20710,
    0xdbe8031c, 0xfe07211a, 0xff15121b, 0xf6e3ff1c,
    0x0fff1302, 0x03fbe618, 0xfcf21bf6, 0xffeef608,
    0xe5ffde15, 0x1acfdd0a, 0x0a1703e1, 0x1207040d,
    0xfdf8fb08, 0x09e4fa0e, 0xfeeae001, 0xf4f40e0f,
    0x0605f302, 0xf0dbd62f, 0xf2edf110, 0x01e5e70c,
    0x04fd01fa, 0x0c080604, 0x0b03f400, 0x1914e7ef,
    0x12f0e513, 0xfdedc5e6, 0x00081ffd, 0xf6fc1a0c,
    0xff192a0d, 0x07001c10, 0xff0becfb, 0xf2060f1a,
    0x06fd1309, 0xf50e1419, 0x02031d01, 0xf9fef9f2,
    0x00082809, 0x05113eec, 0x0306082f, 0xf900f504,
    0xfbfef2f1, 0x05081107, 0xf8fb0a00, 0x060bfa26,
    0x06f4e8c1, 0x0702d8ff, 0x0105dbe4, 0x0ff40209,
    0x04ef0be3, 0x08f1c1d1, 0xf0f81c12, 0x08160806,
    0x11ee2ef0, 0xfff80efe, 0x0902bfea, 0x0af6ceee,
    0xfdf6fef5, 0x0110cbf6, 0xfb09210b, 0x0010f7f7,
    0x090e07f8, 0xf6031610, 0x00f62a09, 0x080df70d,
    0x05fab404, 0x0a0e2a02, 0xf902080e, 0xfa04fa02,
    0x06eda4e3, 0xf90e2f18, 0x0ef5f6ff, 0x08fd04e5,
    0x0611f5fd, 0xf8000bdf, 0xf70b1014, 0x01f71be9,
    0xfcfc142c, 0x03f8e2f4, 0xff07c908, 0x0611f70c,
    0x12fed0d9, 0xfbf1fbbf, 0xfef7fc0d, 0xfa080ef5,
    0xfcf4def9, 0x0cfcdee1, 0xf4f71210, 0xfbf902e9,
    0xfffb2415, 0xeeeaf602, 0x02ffdbe3, 0xfe0d031f,
    0x01150ffc, 0x02fa24fc, 0x030edb10, 0xef0c1001,
    0x0823faf6, 0x010feefc, 0xf6ff11f1, 0xf20120f2,
    0x0101bafe, 0x0efad6f8, 0x140b351d, 0x0bfe03f8,
    0x06f32216, 0xfff91813, 0xfdf6f7ed, 0xf506310c,
    0xfff1ff0d, 0xf6001810, 0xf911a3dd, 0xfefd1d0c,
    0x04ff0700, 0x0d0d0aed, 0xfcffcef1, 0x0c15100d,
    0x09fd23f8, 0x0308f8ff, 0x0bf9c514, 0x0dfdbce5,
    0x050720f2, 0xfffd13fd, 0x0910e4f6, 0x02f12b0b,
    0xf3f90e09, 0x01f5eef0, 0x0af702cd, 0xe7132e24,
    0xfb04ddf7, 0xeff5fbe8, 0xfafa2e19, 0x09162b14,
    0x050f20fa, 0x001c6d2f, 0xfc15fdeb, 0xf9fc110d,
    0x0312f4fe, 0xfaf7f005, 0xf5fe07f4, 0x000305ef,
    0x00e516ed, 0xf808082c, 0xff062414, 0x07f4f50c,
    0xfbede2ec, 0xfc07f204, 0xf6fbe213, 0x0104d5ef,
    0xf7fa341d, 0xf404ede4, 0xfdf02116, 0xf603c4fc,
    0xf2100a15, 0xfa091a0d, 0xf716221f, 0xfc010924,
    0xfa161310, 0x00fc05f9, 0xfff9e4fc, 0x06fefb22,
    0x0e0f08fd, 0xfdfb072f, 0x08fc0b01, 0x0bfb43f3,
    0xf9093716, 0x01ebace1, 0x0cfe2102, 0x02e3ebfb,
    0xf7f62a14, 0xf4fb010b, 0x01fdfc0d, 0x051324fc,
    0xf90010f0, 0xf7e61020, 0xfafaff00, 0xdefafd01,
    0xf3fcfe02, 0xf40707fd, 0xfe0005fe, 0x140afaf3,
    0xf908f8fa, 0xf50103ff, 0xfe02000a, 0xe9f90b0e,
    0xf203f403, 0x0306f503, 0xfbfafbfc, 0x00fefa03,
    0xfb0b00f2, 0xf50502f6, 0xea02f401, 0x1902fd0e,
    0x02fe0003, 0xf5f8fdf8, 0x2a0207fb, 0x04fdeb0e,
    0xe1f9f705, 0xdffb01f0, 0xf2f6f509, 0x0908f812,
    0xd9fb07f9, 0xfb08f7f6, 0xf6fefe01, 0xff0d02f4,
    0x0e0a03f3, 0x1e05090a, 0xf809eff5, 0xf2fe0e11,
    0xdb0905ff, 0x0004fb04, 0x0a02fb09, 0xf3fcfef6,
    0xdffd0f00, 0x19fc06f9, 0x0af7ff0a, 0x04061004,
    0xec06f90b, 0xfefe01fa, 0x3707000b, 0xe00303fb,
    0x02ff03f5, 0x3913f309, 0x0df60a01, 0xeefcfa04,
    0xfc03ff01, 0xff050b07, 0xf704fd09, 0xe513fa01,
    0x0cfdfb02, 0xe5020700, 0x06fdff02, 0xf50312f9,
    0xea01f9f9, 0x06f805fe, 0x1cff0101, 0x24f60b00,
    0xff03fdff, 0x09fee901, 0xf108fc06, 0x0401fa0d,
    0x2afe0115, 0xea0bf506, 0x1107fb00, 0x15060602,
    0x060102f6, 0x10ffff01, 0x26ff0801, 0x0f01fc00,
    0xee09f20c, 0xe9fd14fb, 0x2302e912, 0x14010207,
    0xe3fd15fc, 0xf3f205fe, 0xf2fc02f3, 0xddfef10e,
    0x1efdf901, 0xee031000, 0xecfd0406, 0xf201fcf9,
    0x1bf6f9fc, 0x0ffaf401, 0xf90104fc, 0xf1fc04f4,
    0xf600faf1, 0x1f000404, 0xe9090cfc, 0xf6fa0610,
    0xf0fafe02, 0x3309fa01, 0x2b0314f5, 0xecf4f7f6,
    0x1609f704, 0xe80505f8, 0x0000040f, 0x11fafb0d,
    0x0bfdf9fb, 0xe2050302, 0x0f04f600, 0xef0202fc,
    0xcd020afd, 0xf0ff0ef7, 0xf20616fc, 0xf506fc10,
    0x0d070b08, 0xfe090004, 0x1100f906, 0xf50200f8,
    0xdffffb0a, 0xeb0800f8, 0x07f9010e, 0xf1f91df2,
    0xf0f907fb, 0x00fef0fd, 0x110df9f5, 0x0601f3fe,
    0xf4fd0cf9, 0xf703f600, 0xf3fc03fb, 0xcf04fcf7,
    0x07090801, 0xe0effefd, 0xf20206fd, 0xf8fafd04,
    0xf5fd0e02, 0xe60206fa, 0xf10a0a00, 0xfefa0403,
    0xf8fefefb, 0xf0fdf3fc, 0x1cfd00ff, 0xfdf6f004,
    0xf5fc02fe, 0xed06080d, 0xecfe0208, 0xf9fafef3,
    0xff02fe0b, 0xecf6f40a, 0xf504080c, 0xf50902fa,
    0x03fcfffd, 0xfdfefdf8, 0xf904f5f5, 0xfc05f000,
    0xfd04ec02, 0xecf2f101, 0x24f91ef8, 0xf1f8f501,
    0xfd040000, 0xfe0018f5, 0x03ffe90c, 0x03fb23fd,
    0x03040a01, 0x0a052609, 0x1d0b1a02, 0xecfcfafd,
    0xfd03f6ff, 0xfc04f8ff, 0x040c0ffc, 0xf303f401,
    0x0906f904, 0x00f9fdfc, 0x04fd01f9, 0x15ff1efc,
    0xd803d404, 0x15ff1bf8, 0xf40fd804, 0x14f8f404,
    0xf3fc0bfb, 0xfb031af9, 0x26081bfd, 0xed03da02,
    0xe607e60a, 0x0205f7f5, 0xf312d1f7, 0xf8f6fdff,
    0xea01f5fc, 0xe9fdd3fd, 0x0c00f2fd, 0x1201170e,
    0xe60c04f7, 0x12ff1716, 0x17ef190a, 0xfefccffe,
    0xf70801fe, 0xf904f700, 0x23012600, 0xfe0b0101,
    0xeffffb01, 0xee09fb01, 0xef010f0a, 0xef10f400,
    0xec01f60a, 0x13fcf704, 0x0afdfeff, 0x1e0a14fb,
    0x1df824f3, 0xebffe9f7, 0x00fa06ff, 0xf3fee20b,
    0xf303cdfd, 0x00fef6ff, 0xfcf70705, 0xf9f70bf5,
    0x13f3fb03, 0xec06be03, 0x00f41509, 0xf3fdf5fb,
    0xf208f0fc, 0xfdf90c01, 0x0206f7fa, 0xe1fdd20b,
    0xe7fadb01, 0xf1ff0d09, 0xfbfafc06, 0x0cfa0b01,
    0xedf8e308, 0x0bff0c01, 0x180cfcfd, 0x19f7e7f6,
    0x01ff1f03, 0xe1fde5fc, 0x2803f603, 0xffeb16eb,
    0x0ffe1bf5, 0xe6f5f0fe, 0x010606f7, 0x0af8f8fa,
    0xec0307fa, 0x1008150a, 0x0800d00d, 0x0dfe0907,
    0x0301fd00, 0xf100fdfe, 0xf6fe05fd, 0x0afd070b,
    0x0d080906, 0x0f0309fd, 0xeefbd70c, 0xe70306fc,
    0xfd01e0ff, 0x09f9fd0d, 0x0607f503, 0x17fe0a01,
    0xfe051f04, 0x0a020311, 0xfbfdd5fe, 0xd8fff2fe,
    0x12f90e03, 0x0cfbe7f4, 0x16ff2902, 0xf10ef4fe,
    0x0e001afa, 0xee12e5ff, 0x0d08e30b, 0x02fd0805,
    0xf1fef103, 0x0802f7f4, 0x16f90efd, 0x0bffe9f7,
    0xfd0008fe, 0x160031f8, 0xff0005f8, 0x1d061508,
    0xfb0f05fb, 0xf8030dfd, 0xfeff0afa, 0x08fcf1fb,
    0x03fb2301, 0x14fafb03, 0x18021cf8, 0xf4fcdb08,
    0x1dff2ffe, 0x15081a09, 0xff05070a, 0x240839fa,
    0xf4f9fef5, 0x12000ffe, 0x03fe06f8, 0x22ff170d,
    0xeefee305, 0x09feff10, 0x0207f907, 0x1cf30201,
    0xedfdf8f8, 0xecf7d2fd, 0xddf7dff9, 0xeff805ef,
    0x20f631fc, 0xf20d0afe, 0xfa00fafa, 0xe50dde0a,
    0xef0a0c08, 0xdef7f206, 0xff06fa0d, 0xeafdfaff,
    0x0c0d0bf8, 0xf61a08f6, 0x22fafe14, 0xfbf4ff01,
    0x05f0f3fa, 0x0109f40e, 0xfb0bf710, 0x12f50305,
    0xfa10ff03, 0x0cfcfb0a, 0xf20508f6, 0xf10bfa06,
    0xfc07fc07, 0x00e609ec, 0xe6f506f8, 0x08f80504,
    0xfdfaf904, 0xf10409f5, 0x1c10fa0d, 0xd004fc02,
    0x06eafdf9, 0x03ee0f01, 0xe9f0f7ff, 0xf2f9fffb,
    0xf30d0bff, 0x26f8070b, 0x0100fa04, 0x1ff901fe,
    0x0afcfeeb, 0x080cf7ec, 0xe003f7ef, 0x05e507f3,
    0x1cfbfd08, 0xee0309fe, 0x1401fe06, 0x0a0417f6,
    0xec040005, 0x2403f607, 0xee0dfbfa, 0xf9f9fb02,
    0xe9091301, 0x00020505, 0xe004fdff, 0x0f04ff09,
    0xe606effe, 0x1f06fd07, 0x29f70908, 0xf7fb0715,
    0xe20309fe, 0x1f05f004, 0x040b0303, 0xf0fd0cf1,
    0xeefaf0f0, 0xfcf3f30c, 0x2901fa05, 0xf4fdf9f5,
    0xf5f6f0f1, 0x2908fffe, 0xf60e09f4, 0x33f4fc04,
    0x03e40003, 0xebf7eafc, 0x080408ff, 0xedf104fa,
    0xfc03e60d, 0x13f00309, 0xdef30207, 0x07f2fefa,
    0xff0df503, 0xfa020e0d, 0xf101f306, 0xe10cf709,
    0x1106fbe8, 0x13f10efe, 0xdbfef8f6, 0xdd11e5ff,
    0x3ef2090f, 0xf707020f, 0xe50706fb, 0xfcf607fc,
    0x1701f8fa, 0x360c0614, 0x180202f2, 0x1e020208,
    0x060c02ff, 0xff09f505, 0xff0202fa, 0x0f040e00,
    0xf007fee8, 0xea04fe08, 0x220dfd04, 0x04010803,
    0x06eefafa, 0xdc09f6f3, 0x19fc070f, 0x0d020005,
    0xfffdf314, 0x030900fc, 0x0a0307fc, 0xdb10f1ec,
    0x070cfbfe, 0x09ef0b0c, 0x050afefa, 0x06fafd0a,
    0x2b0b1008, 0x18f7000b, 0x0afc0b01, 0x1fef0b15,
    0x1d1a0a13, 0xeaf7faf4, 0xfb0d0905, 0xd8e50107,
    0x190b060b, 0xd4f4fdf0, 0x19f80108, 0x2106110c,
    0x01ed0004, 0xdc13f3fd, 0x02fd04fa, 0xe2f002fd,
    0xedfb04f8, 0x0002fef9, 0x0e0500fa, 0xdeff0301,
    0xff0ef4fe, 0x02f304f7, 0x17031c0c, 0x02010e04,
    0x21fa03f4, 0x0913fffb, 0x09f10a04, 0xf6fefcfc,
    0x11f4fe00, 0xe827fc04, 0xf2000304, 0xe2fffcfa,
    0x10070aff, 0xf513fbf6, 0xf1f80303, 0x1cf0fbf9,
    0xee0afb03, 0xfb08ecf6, 0x06030303, 0x00f1f0f6,
    0xfff7f7f9, 0xfb06f916, 0xf105ff09, 0xfc07f209,
    0x05fbfe0e, 0x20130c13, 0x07f018fd, 0x17030012,
    0x05dbecf2, 0xe7030efd, 0x17ea00f4, 0xe8f5fffa,
    0xfb0cfb05, 0xc6dc0c06, 0xf021eafa, 0x121d03fd,
    0x26f40b05, 0x1a190402, 0xf117fbfc, 0xecf105fc,
    0x150ffe05, 0x0cf90ff0, 0xf006faf5, 0xedf90e08,
    0x16010b03, 0xfb1804fd, 0x0ecaf6f4, 0xe6e0f4f5,
    0xfc15000f, 0xf9fd112f, 0xe81af3f4, 0x20e8f3fe,
    0x1afcff09, 0xfadf0105, 0x07e605f6, 0x060d260f,
    0xfd17ff0e, 0x0de7050b, 0x14e0f3ee, 0x12110df8,
    0x10031efb, 0xf107fbee, 0xe6e4f8f6, 0x12f70503,
    0xff1bfc12, 0x0cf0f9eb, 0xd01b04e4, 0xff04fe03,
    0xe81f221a, 0x28fcf802, 0xed1afb09, 0x0cfb1cf7,
    0x05070bff, 0xf40bf1ee, 0xf7fafbf1, 0xeffefbee,
    0xecf6f500, 0x23030d1c, 0xcd130412, 0x08eef90e,
    0x08090e00, 0xe5efebea, 0xe31305ff, 0xe50b06fe,
    0x08061a0d, 0x1efc0d08, 0xf3e20713, 0x0102fcff,
    0x12f70efd, 0x02fc1812, 0xd227e5e5, 0x410deef9,
    0x3c1605f9, 0xcefa0102, 0xf308f609, 0x170102f3,
    0x12f70f02, 0xe72e0101, 0xf914f1ea, 0x03ddee02,
    0xec25161c, 0xf52ef2ff, 0x0fbdf5e8, 0xfa0ffc01,
    0xec38fc2a, 0x3311f1f6, 0x0c0d0ef8, 0xece104f0,
    0xf0f90505, 0x0ae10004, 0x1c140504, 0x00090502,
    0xfd02f904, 0x11de0c07, 0xd5fcf701, 0x1600190d,
    0x01edfff2, 0xfafa1604, 0x0d090105, 0xf926181d,
    0x1af3100c, 0xeeeee4de, 0x000cf0e5, 0x0dfafcfb,
    0x0fed050c, 0xee0ff904, 0xe51a03fa, 0x4013f017,
    0xfb081efe, 0xeff9f3f4, 0x03dceffa, 0xec02fe04,
    0xfee5edef, 0x28f6f8f4, 0xfd0509f1, 0xe6effaf9,
    0x20110f06, 0xd50cf6ff, 0x1702f2f6, 0xf5ffe6ed,
    0xfffd070a, 0xf4e8f6f0, 0xebe20d09, 0xe10204fc,
    0x230410fc, 0x08e9020a, 0xf111f813, 0xebffedfd,
    0xf7fbf5fb, 0xf901f7ea, 0xbb27fef2, 0x0dcbedec,
    0xd4071cf6, 0xda0f11ee, 0x11e10705, 0xfafb09f9,
    0x06e205fb, 0xf8ed1206, 0xfc09fd1b, 0xfd11f7f4,
    0x0b080e0f, 0xfbff0508, 0x0c10fd01, 0x0e0306ff,
    0x0d0202ff, 0x10f5fbfc, 0x0709f3f7, 0xd0120709,
    0xe7ddeff7, 0xf3f3fe04, 0xfcf2010b, 0x261f00ff,
    0x28fdf8f5, 0x06ef07f3, 0xfd1cfd00, 0x47f6ebcf,
    0xf7f700e7, 0x1afd0104, 0xf23224f5, 0xf6e6f0f7,
    0xec1a22fc, 0x0af60209, 0x0b0ff3fd, 0x06ee07f9,
    0xfdf0e31e, 0x30f91102, 0x11fe0412, 0xf4fdf30e,
    0x1a0ceff7, 0xf913f6d6, 0x0ffcebfc, 0xffeb1600,
    0x08fef211, 0x03f1f412, 0xfb44010a, 0x0fdedd19,
    0xfb030bea, 0x1822ebfe, 0x2f00eeee, 0xf0dde121,
    0xfc06dd26, 0xf938fc0b, 0xf3f3fc02, 0x195206dc,
    0xfeed26f3, 0xfcf703ff, 0x01e7e720, 0x0cee1500,
    0xdf0f06ee, 0xffe6eeea, 0x09e51e02, 0xf806020b,
    0x1201f901, 0xfd1e1408, 0x27eeddf8, 0xf6ee1d0a,
    0x09f7f134, 0xff01fbfb, 0x01d6f001, 0xf906fa1e,
    0xfde9f51d, 0x043615fa, 0xee2515f7, 0xf60c0003,
    0x03f2f701, 0xf7370313, 0xf2f7e3e1, 0x1bedf3e6,
    0xfceed914, 0xf1fb16f9, 0xed281104, 0xfef0fedb,
    0xfde7f32c, 0xf8111b0d, 0xfbfbfedf, 0xe22425ee,
    0xf4e90cf7, 0x0fe2fa0e, 0xe5faf9f0, 0xf9cf0ff9,
    0x22fcf828, 0x26051bf2, 0x08df12fa, 0x05020ae8,
    0x1d0fe7f2, 0xfef40e05, 0xe6e22af8, 0x01ebd921,
    0xf913fb1f, 0xf9350bcc, 0xf4dae419, 0x0ad9d726,
    0xe3201fe3, 0x0d06fcf2, 0xf202de2b, 0x28e60df2,
    0x1015fce9, 0xfc3807e6, 0xf835f3e8, 0x0f0406e3,
    0xd618fff2, 0xe7fdeb24, 0x00fefc02, 0xf4fb0a06,
    0xeddc010d, 0xdcdb0611, 0x0d33f4ec, 0xfc010710,
    0x0816fff6, 0x13d4db03, 0xf41b17f2, 0x1526ebf2,
    0x14f8060b, 0x0dfffeea, 0x0bfc1705, 0x00deec01,
    0x141ffb1f, 0x22f0fd03, 0x0de80b08, 0xf22e060a,
    0x002a00dc, 0xf92efe0b, 0x0212f5fd, 0xdae013f6,
    0xf72e080c, 0xf1fc1905, 0xfcf606f1, 0xf8f6080d,
    0xfa2ef3ea, 0xe9fd01fc, 0x22291bf0, 0xf32505e0,
    0xe8fb0810, 0xf6ebe517, 0xfdddedfd, 0xeee30717,
    0x08f2ecf5, 0x0affee15, 0xf2f1e401, 0x05fdee11,
    0x05fdd811, 0xec0614d0, 0xfaf1f8f9, 0x0403fb14,
    0xe1ef02e3, 0xe5ede90a, 0xe7e51eec, 0xf6efef02,
    0xf8180720, 0xe9fade1e, 0xe0df13f5, 0xfbe3fd16,
    0x08f8fffb, 0xea02e80a, 0x24ef0fff, 0x1b2c04e3,
    0x32f7020c, 0xf9f2ff25, 0x0606e7f2, 0x0ce209e3,
    0xfe000200, 0x0911fcfa, 0xe8e4f404, 0x15f5f7f1,
    0xfd03eafe, 0x0cf12df6, 0xfdfa2616, 0x12f52301,
    0x0204fa09, 0xf600f9ff, 0xf106f4f9, 0xff051809,
    0x070c0503, 0x01030609, 0xee14f3ff, 0x06fc09f7,
    0xf5010bf9, 0x0d05e906, 0x0af805fd, 0xfffbff09,
    0xfcf701fd, 0xfcfafa0b, 0x000afeff, 0xf501f701,
    0x0df3edfc, 0x060d01f5, 0xf90dfcf0, 0x0404fb11,
    0x02f80c01, 0xfbec00f7, 0xf20a0bfa, 0x03f6f600,
    0xfff604f5, 0xf9020aff, 0xf407fc0f, 0xfdfa020b,
    0xf6fefcf7, 0x040502fb, 0x0ffd0cfd, 0x04020806,
    0x01edfbe3, 0xfafe0e07, 0xfefc25fc, 0x0c00e900,
    0xfcfb21ff, 0x0310fb01, 0x030800ec, 0xfa05ff05,
    0xfd01e5fa, 0xff041ff0, 0x02f4efff, 0x00fb0701,
    0x0507ff07, 0xf2f4f2f8, 0xfa0cf2fc, 0xec10ea10,
    0xebf7ff0b, 0x10074000, 0xfbfbef07, 0x05fbfcfe,
    0x0002f1fa, 0x18030af8, 0xff0ce2f3, 0x05fcfa04,
    0x05fef809, 0x1202ea02, 0xf6fcfe04, 0xf9f8e3f8,
    0xf70807f4, 0xfd0efe07, 0x0317e5ec, 0x0b030cf7,
    0x03f7f3eb, 0x0107e4ef, 0x070a2904, 0xfcf9f602,
    0x0b09e700, 0x11f8fcfe, 0xf503dcf3, 0xf1f006ff,
    0x010210f2, 0xfffae9ec, 0x0003f614, 0xfa12f200,
    0x08f11603, 0xf90006f5, 0xfa0c0409, 0xeffbfd03,
    0xfc05090b, 0x0dfd1901, 0x0410fd07, 0x01f8fd0a,
    0xfffb0008, 0x0bf3020e, 0x0dfb0218, 0xfb02e6f5,
    0xfd0a0705, 0x09f10107, 0x0505eafb, 0x04fef706,
    0xfcfbe4ff, 0xf115ecfa, 0x00f5f402, 0xfa0b1f08,
    0xff08f8fc, 0x0801eff3, 0xfd04f0f1, 0xfc0d08f4,
    0x0feff5fe, 0xf6f6f3fd, 0xf9ff200f, 0x0cfde602,
    0x0d1505f8, 0xf9f5f3f7, 0x0a02edff, 0xfa05fe01,
    0x0001f9f3, 0xf9fc020a, 0xff0c230c, 0xee0cf6fb,
    0xfff900fc, 0x0b180f04, 0x0303e703, 0xff0802fd,
    0x0a0efbfc, 0x0208f700, 0x040b18f9, 0xfd02e500,
    0xfdf4f405, 0xf70a080f, 0xfb050c01, 0x01fbf6ff,
    0xe50f1115, 0xfb090f0b, 0x0b03f5fc, 0xfd122c16,
    0x070de3f6, 0xf7080302, 0x09050f0a, 0x05000e04,
    0xfe0aeaf4, 0x0100f8fe, 0x00040101, 0xf8f61a09,
    0xff0e15f6, 0xfc01f610, 0xf8f702fa, 0xf6f6e507,
    0x1412240d, 0x0313fe06, 0xfc02f7fb, 0x03f0e1ea,
    0xffeff807, 0xf803f7f6, 0x150001fe, 0xea0efcfb,
    0xf80ffcfa, 0xf60200ee, 0x1e06f9f9, 0x12000404,
    0x00f6fcfd, 0x06060607, 0xfc0306fb, 0x020205f4,
    0xf6fcff01, 0xf70202eb, 0xe400e602, 0xfa050af6,
    0xfdf9fe09, 0x0afefb08, 0xd201fdff, 0x0900ee12,
    0xeb03fb07, 0xee08ff01, 0x02070501, 0xf60204fd,
    0xedfcfd00, 0xe204fef9, 0xf205fc00, 0xff050afe,
    0x04fb0305, 0x16f9060a, 0xf5f3fe01, 0x0305fa04,
    0xfe01fe04, 0xe401fbfc, 0x0f080c08, 0x02fcf8f9,
    0xfbf603fa, 0xef060006, 0x0702fdf6, 0xe5050000,
    0xdc08ff06, 0x240208ff, 0xe1fefbfe, 0xf902030c,
    0x09030106, 0xfbff0102, 0x050806fa, 0xf70e0806,
    0x11fe16fc, 0xe6fdf7f9, 0x1209fefb, 0x08fff900,
    0xe7fbfa04, 0x0bfe0805, 0xf8faeffe, 0xe40bfdf1,
    0x20fc0e05, 0x0afb0902, 0x04f20604, 0xf60804f9,
    0x2b062411, 0x22f60bfd, 0xf405f000, 0x1003f805,
    0xed01fcfd, 0x09fdf207, 0xf9fdfa01, 0xf80606f7,
    0xd3f7eb05, 0x00f5f5fc, 0xfefbf4fe, 0x2afe0502,
    0xe00000fd, 0xfd05fc01, 0x0800f705, 0xfe02fffd,
    0xe2fd0506, 0xe6f903fd, 0x00020ef6, 0x00080af6,
    0xecfe02ff, 0xf808f101, 0xfbfa0807, 0xf904f103,
    0xec03fa03, 0x0507020d, 0x03f90208, 0xfafbf7ff,
    0xc2060001, 0x10f70503, 0xfc0600ff, 0xf605f907,
    0x0cf80b10, 0x1aff0203, 0xf907fbf5, 0x1b05f6ff,
    0x11fb0201, 0x0e000cfb, 0x1500f113, 0xf001fe0c,
    0x130010fa, 0xda07fd02, 0xf6fe02ff, 0xf002090a,
    0x11fdfb04, 0xd7050005, 0xfe07f701, 0xec040a02,
    0xe703fc03, 0x28010804, 0x1efa0a02, 0x02f6fbf6,
    0x1e0efb02, 0xdcf607ff, 0xfd02eb06, 0xdcf60805,
    0xc309f400, 0xd3f6fa06, 0x0809f4ff, 0x0afa0bf9,
    0x15f2fb03, 0xe7fbf8f6, 0x0af7f108, 0xfcf505ff,
    0xebf6fc04, 0x01fe0513, 0x17000dff, 0x04010afc,
    0x09fe0607, 0xd9f8f806, 0x09040701, 0xe4f9f9f9,
    0x1608f6ff, 0xe00410fb, 0xfdf10803, 0x1101f9ff,
    0xfbfd00ee, 0xecfcfc0c, 0xfe0cfafb, 0xf901f8ff,
    0xf70303fc, 0xe90603ff, 0xf2fbfef4, 0xfa120bfe,
    0xed03fef5, 0x20fb0a0a, 0xe0f3f904, 0x010a0af9,
    0x0200f9fd, 0x18ed1004, 0x0af503f7, 0xfefdfa0c,
    0x14f7f604, 0x0ef3f505, 0xf60102f2, 0xf9fffafe,
    0xf20bf904, 0x1503e6ff, 0xf4fbcdff, 0xd801f90c,
    0x100100fe, 0xfa10fafc, 0xf703e9f7, 0x00f102f9,
    0x02f3feff, 0x0e06ec08, 0x1af6f6ff, 0xe8fe04f7,
    0xf5f7f7fd, 0xfd07fb01, 0x0206fbfd, 0xf6060a03,
    0x1407f800, 0xef041bf7, 0x02ffd508, 0x25f8dc03,
    0x01ff00fa, 0xf70d1010, 0xfd130e0b, 0xf707f7ff,
    0x06f004fc, 0xf1fa0ef8, 0x0406fd06, 0x06fe1306,
    0x0afdffed, 0xfe02e80e, 0xff0bef01, 0xef042104,
    0xe6f41dfe, 0xfbfe04f1, 0xfd0513ff, 0x0cf3ea00,
    0xf7000605, 0xf803f506, 0x0c1af5fb, 0x02020303,
    0x11fc1f01, 0xecfe27fa, 0x2303def7, 0xf5090c0e,
    0xea042702, 0x0efae9fe, 0x0e0cf201, 0x2009f000,
    0xe71310f6, 0xf3f50900, 0x23f8f0fd, 0x00fb0107,
    0x0710f003, 0xf612bb01, 0x2c04f1f8, 0x0f0ceffa,
    0xf9fe2ff4, 0xf1ffea0b, 0x02f80bfa, 0x1afbf9fd,
    0x01040402, 0x02f2000a, 0xfb0ad409, 0xdbff0a03,
    0xedecfe0d, 0xf40cfe06, 0x0ff90d05, 0xeb0326f8,
    0xdeed0cf0, 0xfdf1f907, 0x1006da07, 0x15fde801,
    0x070a0f00, 0xf90bd6fb, 0xfc04e309, 0xf605ff01,
    0x0b1822f4, 0xfcedfc03, 0x01fff703, 0xeefc0def,
    0x07030101, 0xe1e903f7, 0xf1f3be04, 0x1403e004,
    0x01fdfcff, 0x05f8110f, 0x0fff1300, 0x00f70b05,
    0x000918ff, 0xe70e11fa, 0xfefef7fd, 0xfbfc0903,
    0xe4ef1605, 0x1300ee00, 0xff0ae501, 0xfef509fa,
    0xfffdf9fa, 0xedf8d903, 0x0409e0fc, 0xeff0f7fe,
    0xe60e16fc, 0x2208cc09, 0x05070a06, 0xff09ee02,
    0xfa122404, 0xddf5ebfb, 0xedfe08fe, 0x0a04e201,
    0xf2e612ff, 0x090006f2, 0xf7050807, 0x15f0dfff,
    0xf2f4110d, 0x06fd24f5, 0xff02010c, 0x0112f8fe,
    0xe60a290b, 0x0eef03fe, 0xfa06e401, 0x1efec6fe,
    0xfe0bf801, 0x020a0704, 0x0e090ffe, 0x1c09ce01,
    0xe11309f2, 0x15090305, 0xe2faecf5, 0xf30d0303,
    0xf0fee302, 0x07fd1efc, 0x07031df9, 0xf807f701,
    0xe8f5fff9, 0x160cfd04, 0xf906fdfd, 0xfe01f211,
    0x02fc04fe, 0x1cfef90b, 0x0cf9f90a, 0x030b03fd,
    0x050b4d0a, 0x14e9f600, 0x00fe0105, 0x0a050503,
    0x04feed03, 0x23f70102, 0xedf301fa, 0xecfc0de8,
    0x090dfefd, 0x25f802ff, 0xf1fe09fd, 0x0efef206,
    0xfffc06f7, 0x16ff021a, 0xfbff0503, 0x0202fe07,
    0xe4020d09, 0x01f906f8, 0x020010e4, 0xe5f5fcfc,
    0xe90bff26, 0x0bf6ffe8, 0x07fffef3, 0xf9ff05fa,
    0xf8ff07fd, 0x020a0406, 0xee080712, 0x150007e4,
    0xfbfefaf9, 0xdb0b0810, 0x03fd00f8, 0x1005f010,
    0xf807090c, 0xeffafe1f, 0x0602f70d, 0x0b0401f9,
    0xfa0a0b06, 0xf7f802ed, 0xf2f5fefe, 0xf3fe0bfd,
