#include <stdint.h>

const uint32_t l3_weight[] = {
    0xe4fafbc9, 0x04e2340e, 0x323027e7, 0xfd1de8f9,
    0xf6e4f12e, 0xfefaf525, 0xe9d7fad7, 0x36271b27,
    0xec28e0c7, 0xe0d1ee27, 0xe31edae6, 0xf0ddddeb,
    0x2700dbdf, 0xf2320dd9, 0xe7f02fed, 0x1c28e723,
    0x1514e638, 0xe2de31ed, 0x32e81232, 0xdfd01c03,
    0x2ce7e4fb, 0x24e1ee28, 0x1603efd5, 0xe93ae4e1,
    0xf6e333fc, 0x05e2fd04, 0x0ce3fae5, 0xdcde2a10,
    0xe5292f21, 0xe62af21f, 0xe9f9edf8, 0xfa2df927,
    0xe5e4fe2c, 0xf8e2032f, 0x1b19e4ce, 0x13e7f2f2,
    0xeee7efe3, 0x44f22022, 0x000417d6, 0xd52531fc,
    0x1cf61df2, 0xed02fb20, 0x2708f430, 0x2214f82e,
    0xdef8fbdb, 0xd401eec8, 0xe5ed18ef, 0xe7eff635,
    0x321000da, 0xfb1209ea, 0xd9da211e, 0x2329e6e5,
    0xcdcc1d1b, 0x2c361dd8, 0xfde0f6ef, 0x1d2ecc20,
    0xe518dfd8, 0xe0e00025, 0x01f71cd1, 0x1800fa1c,
    0xedf210dc, 0xda22e73a, 0xe8de1e39, 0xd9e2e3d4,
    0x001d2efe, 0x3bd3f8d8, 0x2efce3e7, 0xceebf500,
    0x261ef712, 0x321d1326, 0x3afdf4e7, 0xeff6ec06,
    0x07070207, 0xe3e5f8f8, 0xd1fffeea, 0x243519f3,
    0xf101e4f4, 0x0d043931, 0x1af7fef1, 0xfdf10124,
    0x29d5fb06, 0x1ffa0430, 0x132dfde5, 0xce37efed,
    0xf0e1f625, 0xd31537e9, 0x272219ea, 0xddd8f303,
    0x2a19edee, 0xddcbfa22, 0x2ce9fc1b, 0xdd04f8e1,
    0xf3212014, 0xe22837e6, 0xe0cfc916, 0x1fd10eed,
    0x28ec152a, 0xd929d815, 0x14242fe7, 0x22cfcecf,
    0x03fedf1c, 0xfbea3134, 0xf5eef32c, 0x0623e7e6,
    0x07e72d0f, 0x0d03f4f4, 0xfdf039d9, 0x06eed4ed,
    0x0035ffd1, 0x0625cf0f, 0x2ef9e928, 0xf8f1e1ed,
    0xe4f72fe9, 0xf3e4f8ec, 0xeb37f240, 0x0e01fae8,
    0xf9e921ee, 0x1fea01f5, 0xfad91ced, 0xf737e328,
    0xd8edeb26, 0xdb25ebd3, 0xc1cecf07, 0x2f282fd4,
    0x23dce9dd, 0x2ae02821, 0xd8e10a1e, 0xf421dbea,
    0x280f1821, 0x2b1a210a, 0xf3ebeff7, 0xd0e62a01,
    0x14f032ff, 0xece7f7f0, 0x2c31fcfe, 0x1bffecf5,
    0x37ecec05, 0xf10729f8, 0xdff8de27, 0xdc2eebef,
    0xd6fcf922, 0xe4ebf5ef, 0xf20201f7, 0xddfb39d6,
    0x3430e5e2, 0x15f42a27, 0xde00f806, 0x22e2dd2b,
    0x1ce2fcd6, 0x1429000f, 0xe2f6242f, 0x1613eef0,
    0xd50ae438, 0x22fef0e4, 0x2127edf8, 0xe5e425f7,
    0xe7ea2ef2, 0x2535221e, 0xd2e3d80e, 0x2ceaf4c3,
    0xe21ce6eb, 0x18073509, 0x2de5fd04, 0xe91ceb01,
    0xe5cd36f3, 0x0e0cf6ed, 0x23ec01f7, 0xf6fdfb2f,
    0x040d06eb, 0xf40edc06, 0x3c140132, 0xe5f3d71d,
    0x1637d619, 0xdbfdcbf7, 0xe1fd2a09, 0xf60018db,
    0x38edef2f, 0xceef2ed9, 0x30df32dd, 0xccfcf0f1,
    0xfbf62a2c, 0xede7eef1, 0xecdf21d7, 0x33390bfb,
    0xe5f0d51b, 0x1d2dcdd6, 0xf4f0da2f, 0x1cf410fb,
    0xf8ee0fe5, 0xf11b2614, 0xf8f8fc1e, 0x1cdaf2ef,
    0xe6d4f520, 0xe32e0010, 0xf6dbfc39, 0xfe2ffed0,
    0x1329f0d7, 0xfaeaf8e1, 0x1727f3f9, 0x0be13c22,
    0xec28ddfa, 0xe52135fa, 0xe2d43128, 0xe3eee6dd,
    0xe7e4fb34, 0x3314eee1, 0x3b0b2fd1, 0xe3ecedd8,
    0x2b14eb10, 0x00f7ef33, 0xe012e9ec, 0xd12216db,
    0xe4142f28, 0xfd0bee14, 0x29fa091c, 0xe009d41d,
    0xe001eef2, 0x11e51ff6, 0x20c00cf2, 0x38f7d3ed,
    0x2cf8ed0c, 0xdbf4f80b, 0xe0311df4, 0x06ebfaff,
    0x2330fe06, 0xd600fbf9, 0x2cf2000b, 0xd2f0310d,
    0x0df4f002, 0x22dbeb09, 0x27df12e8, 0xe025ec2e,
    0xf3d130d1, 0xe6dbf6e5, 0x261cef03, 0xf422f124,
    0xd226f117, 0x29d1fcee, 0xd2e0292d, 0x2f25e5e5,
    0xd91be925, 0x26e815e3, 0x2be4c7d0, 0x29d61bde,
    0xdaf7deee, 0xda172221, 0xdff2e621, 0x2ee10d0c,
    0x232a1816, 0xcb2b0f10, 0xe20e1f02, 0x36e81a32,
    0x2af911fb, 0xeb2b0feb, 0xfde2f01d, 0xea26e4fe,
    0x23cff4e6, 0xf31b093d, 0xe3dcd7ec, 0xfa19fcc8,
    0xe7d0de31, 0xcaf2e4ed, 0xdf1bd827, 0xd92732e8,
    0x26cf04ea, 0x34292eed, 0x22d9e8f0, 0xcf1fe518,
    0x1a1d051c, 0x28ed38dd, 0xf026fdec, 0xefe5f318,
    0xeae5f4ed, 0x39eefde5, 0x24cbf8f1, 0xe62efd14,
    0xec274b2d, 0x31e0fceb, 0xf625fa2b, 0xd90bfae2,
    0xfb00e327, 0x16f3e501, 0xff2ae717, 0x312430dd,
    0xf7db06ea, 0xea22eaeb, 0xf0f5f118, 0x31f2f821,
    0xe21123e0, 0xeeda1de4, 0x1406e507, 0xd9eb1f29,
    0x31fa11e8, 0x2ef3cfef, 0xe4371feb, 0xe3ed1021,
    0xe53218f8, 0xe3ebd928, 0x15041bf9, 0x0ddce0ed,
    0xfdf6f327, 0xec0d2b2a, 0xff2401e9, 0x272032ed,
    0xf0112dd6, 0x25dfe306, 0xe5fceb0d, 0xe613fd26,
    0xe7e9ec05, 0x31c4ccc9, 0xdff8d7db, 0x2fe519eb,
    0xf0da1ff8, 0x39dc1ddb, 0xe729dd27, 0x36fb19e2,
    0xe906dee0, 0xf4e9dc23, 0xdf3e2528, 0xf3331824,
    0xf9fcfdf8, 0xe7f0daf1, 0x36e8e6fc, 0x2bfb2eeb,
    0xe332fa0b, 0xd5f50604, 0xe13aedf8, 0x20ffe2fc,
    0x32f13d46, 0xe7e022f2, 0xe70a2102, 0xebfc37fe,
    0x2225edd9, 0x1efbe117, 0xce1a361b, 0xcf14e216,
    0xd6efe530, 0x26ecd9f3, 0x260b15e9, 0x25d4d3c5,
    0xdcf5f32e, 0xf113ecf5, 0x2dff1bcc, 0x22ed150b,
    0xd4fd2224, 0xe205d4d4, 0xd1ffcf36, 0x22eb25e7,
    0x2510f0d4, 0x14101b25, 0xffe4f3e3, 0xef353629,
    0x23d9e423, 0xefecf9e5, 0x2f25f021, 0x01e03bf4,
    0xede3e625, 0xde33f5e6, 0xded5ecea, 0x1a2703d4,
    0xedf5f605, 0xf9fa322a, 0xfc08ed05, 0xf2faeee4,
    0xf3fb2efc, 0x1005f3e5, 0xdbfc03e8, 0x2cffedf2,
    0xd606ec35, 0x330509f6, 0x0000e6dd, 0x000035ee,
    0x0000e40c, 0x0000dfec, 0x0000291d, 0x0000dbdf,
    0x0000e7f6, 0x00002c34, 0x0000eb0a, 0x0000202b,
    // 0xe4fafbc9, 0xe31edae6, 0x2ce7e4fb, 0xe9f9edf8,
    // 0x1cf61df2, 0xd9da211e, 0xedf210dc, 0x3afdf4e7,
    // 0x29d5fb06, 0x2ce9fc1b, 0x03fedf1c, 0x2ef9e928,
    // 0xd8edeb26, 0xf3ebeff7, 0xd6fcf922, 0xe2f6242f,
    // 0xe21ce6eb, 0x3c140132, 0xfbf62a2c, 0xf8f8fc1e,
    // 0xec28ddfa, 0xe012e9ec, 0x2cf8ed0c, 0x27df12e8,
    // 0xd91be925, 0xe20e1f02, 0xe7d0de31, 0xf026fdec,
    // 0xfb00e327, 0x1406e507, 0xfdf6f327, 0xdff8d7db,
    // 0xf9fcfdf8, 0xe70a2102, 0xdcf5f32e, 0xffe4f3e3,
    // 0xedf5f605, 0x340ee6dd, 0xddeb04e2, 0xee28f0dd,
    // 0xf92724e1, 0xfb20fa2d, 0xe6e5ed02, 0xe73a2329,
    // 0xec06da22, 0x0430eff6, 0xf8e11ffa, 0x3134dd04,
    // 0xe1edfbea, 0xebd3f8f1, 0x2a01db25, 0xf5efd0e6,
    // 0xeef0e4eb, 0x35091613, 0xd71d1807, 0xeef1e5f3,
    // 0xf2efede7, 0x35fa1cda, 0x16dbe521, 0xf80bd122,
    // 0xec2edbf4, 0x15e3e025, 0x1a3226e8, 0xe4ed36e8,
    // 0xf318caf2, 0xe501efe5, 0x1f2916f3, 0x2b2ad9eb,
    // 0x19ebec0d, 0xdaf12fe5, 0x37fee7f0, 0xecf5ebfc,
    // 0x3629f113, 0x322aef35, 0x35eef9fa, 0x323027e7,
    // 0x2700dbdf, 0x1603efd5, 0xe5e4fe2c, 0x2708f430,
    // 0xcdcc1d1b, 0xe8de1e39, 0x07070207, 0x132dfde5,
    // 0xf3212014, 0xf5eef32c, 0xe4f72fe9, 0xc1cecf07,
    // 0x14f032ff, 0xf20201f7, 0xd50ae438, 0x2de5fd04,
    // 0x1637d619, 0xecdf21d7, 0xe6d4f520, 0xe2d43128,
    // 0xe4142f28, 0xe0311df4, 0xf3d130d1, 0x2be4c7d0,
    // 0x2af911fb, 0xdf1bd827, 0xeae5f4ed, 0xff2ae717,
    // 0x31fa11e8, 0xff2401e9, 0xf0da1ff8, 0x36e8e6fc,
    // 0x2225edd9, 0x2dff1bcc, 0x23d9e423, 0xfc08ed05,
    // 0xe8f9e40c, 0x0dd9fd1d, 0xe4e1f232, 0x032fe93a,
    // 0xf82ef8e2, 0x1dd82214, 0xe3d42c36, 0xf8f8d9e2,
    // 0xefede3e5, 0x37e6ce37, 0xe7e6e228, 0xf8ec0623,
    // 0x2fd4f3e4, 0xf7f02f28, 0x39d6ece7, 0xf0e4ddfb,
    // 0xeb0122fe, 0xcbf7e91c, 0x0bfbdbfd, 0x00103339,
    // 0xe6dde32e, 0xee14e3ee, 0xfafffd0b, 0xf6e506eb,
    // 0x1bdee6db, 0x0feb29d6, 0x32e8eb2b, 0xfde5d927,
    // 0x30dd39ee, 0xcfef3124, 0x32ed2ef3, 0x1ddb2720,
    // 0x2eeb39dc, 0xe1172bfb, 0x150b1efb, 0xf9e522ed,
    // 0xeee4efec, 0xdfecf2fa, 0xf6e4f12e, 0xe7f02fed,
    // 0xf6e333fc, 0x1b19e4ce, 0xdef8fbdb, 0xfde0f6ef,
    // 0x001d2efe, 0xd1fffeea, 0xf0e1f625, 0xe0cfc916,
    // 0x07e72d0f, 0xeb37f240, 0x23dce9dd, 0x2c31fcfe,
    // 0x3430e5e2, 0x2127edf8, 0xe5cd36f3, 0xe1fd2a09,
    // 0xe5f0d51b, 0xf6dbfc39, 0xe7e4fb34, 0x29fa091c,
    // 0x2330fe06, 0x261cef03, 0xdaf7deee, 0xfde2f01d,
    // 0x26cf04ea, 0x24cbf8f1, 0xf7db06ea, 0xe4371feb,
    // 0xf0112dd6, 0xe729dd27, 0xe332fa0b, 0xce1a361b,
    // 0xd4fd2224, 0x2f25f021, 0xf3fb2efc, 0xf525291d,
    // 0xe723fefa, 0xfd041c28, 0xf2f205e2, 0xeec813e7,
    // 0xcc20d401, 0xf8d81d2e, 0x19f33bd3, 0x37e92435,
    // 0x0eedd315, 0xf4f41fd1, 0xfae80d03, 0x28210e01,
    // 0xecf52ae0, 0x2a271bff, 0x25f715f4, 0xf6ede5e4,
    // 0x18db0e0c, 0xcdd6f600, 0xfed01d2d, 0xeee1fe2f,
    // 0xd41d3314, 0xfbf9e009, 0xf124d600, 0x2221f422,
    // 0xe4feda17, 0x2eedea26, 0xfd143429, 0xeaebe62e,
    // 0x1021ea22, 0xe306e3ed, 0x19e225df, 0x060436fb,
    // 0xe216d5f5, 0xd4d4cf14, 0x3bf4e205, 0xf3e501e0,
    // 0xdbdf1005, 0xe9d7fad7, 0x1514e638, 0x0ce3fae5,
    // 0xeee7efe3, 0xe5ed18ef, 0xe518dfd8, 0x2efce3e7,
    // 0xf101e4f4, 0x272219ea, 0x28ec152a, 0xfdf039d9,
    // 0xf9e921ee, 0xd8e10a1e, 0x37ecec05, 0xde00f806,
    // 0xe7ea2ef2, 0x23ec01f7, 0x38edef2f, 0xf4f0da2f,
    // 0x1329f0d7, 0x3b0b2fd1, 0xe001eef2, 0x2cf2000b,
    // 0xd226f117, 0xdff2e621, 0x23cff4e6, 0x22d9e8f0,
    // 0xec274b2d, 0xf0f5f118, 0xe53218f8, 0xe5fceb0d,
    // 0xe906dee0, 0xe13aedf8, 0xd6efe530, 0xd1ffcf36,
    // 0xede3e625, 0xdbfc03e8, 0x1b27e7f6, 0x31ed3627,
    // 0x2a10e2de, 0x2022dcde, 0xf63544f2, 0x0025e7ef,
    // 0xf500e0e0, 0x3931ceeb, 0xf3030d04, 0xd815ddd8,
    // 0xd4edd929, 0x01f506ee, 0xdbea1fea, 0x29f8f421,
    // 0xdd2bf107, 0x221e22e2, 0xfb2f2535, 0x2ed9f6fd,
    // 0x10fbceef, 0xf8e11cf4, 0xedd8faea, 0x1ff6e3ec,
    // 0x310d11e5, 0xfceed2f0, 0x0d0c29d1, 0x093d2ee1,
    // 0xe518f31b, 0xfcebcf1f, 0xf82131e0, 0xd92831f2,
    // 0xfd26e3eb, 0xdc23e613, 0xe2fcf4e9, 0xd9f320ff,
    // 0x25e726ec, 0xf5e622eb, 0xedf2de33, 0x2c342cff,
    // 0xec28e0c7, 0x32e81232, 0xe5292f21, 0x000417d6,
    // 0x321000da, 0x01f71cd1, 0x261ef712, 0x1af7fef1,
    // 0x2a19edee, 0x14242fe7, 0x0035ffd1, 0xfad91ced,
    // 0x280f1821, 0xdff8de27, 0x1ce2fcd6, 0xd2e3d80e,
    // 0x040d06eb, 0x30df32dd, 0xf8ee0fe5, 0x1727f3f9,
    // 0x2b14eb10, 0x20c00cf2, 0x0df4f002, 0xd2e0292d,
    // 0x232a1816, 0xe3dcd7ec, 0x1a1d051c, 0xf625fa2b,
    // 0xe21123e0, 0x15041bf9, 0xe7e9ec05, 0xdf3e2528,
    // 0x32f13d46, 0x260b15e9, 0x2510f0d4, 0xded5ecea,
    // 0xd606ec35, 0xee27eb0a, 0x1c03e0d1, 0xf21fdfd0,
    // 0x31fce62a, 0x09ead525, 0xfa1cfb12, 0x13261800,
    // 0x0124321d, 0xfa22fdf1, 0xcecfddcb, 0xcf0f22cf,
    // 0xe3280625, 0x210af737, 0xebef2b1a, 0x000fdc2e,
    // 0xf4c31429, 0xdc062cea, 0xf0f1f40e, 0x2614ccfc,
    // 0x3c22f11b, 0xef330be1, 0xd3ed00f7, 0xeb0938f7,
    // 0xe5e522db, 0x0f102f25, 0xfcc8cb2b, 0x38ddfa19,
    // 0xfae228ed, 0x1de4d90b, 0xe0edeeda, 0xccc90ddc,
    // 0x182431c4, 0x22f2f333, 0xd3c5e7e0, 0x1b2525d4,
    // 0x03d41410, 0x09f61a27, 0x202b3305,
};
